{
  "version": "1.0",
  "truncation": null,
  "padding": null,
  "added_tokens": [
    {
      "id": 0,
      "content": "[PAD]",
      "single_word": false,
      "lstrip": false,
      "rstrip": false,
      "normalized": false,
      "special": true
    },
    {
      "id": 1,
      "content": "[UNK]",
      "single_word": false,
      "lstrip": false,
      "rstrip": false,
      "normalized": false,
      "special": true
    },
    {
      "id": 2,
      "content": "[CLS]",
      "single_word": false,
      "lstrip": false,
      "rstrip": false,
      "normalized": false,
      "special": true
    },
    {
      "id": 3,
      "content": "[SEP]",
      "single_word": false,
      "lstrip": false,
      "rstrip": false,
      "normalized": false,
      "special": true
    },
    {
      "id": 4,
      "content": "[MASK]",
      "single_word": false,
      "lstrip": false,
      "rstrip": false,
      "normalized": false,
      "special": true
    }
  ],
  "normalizer": {
    "type": "BertNormalizer",
    "clean_text": true,
    "handle_chinese_chars": false,
    "strip_accents": true,
    "lowercase": true
  },
  "pre_tokenizer": {
    "type": "BertPreTokenizer"
  },
  "post_processor": null,
  "decoder": {
    "type": "WordPiece",
    "prefix": "##",
    "cleanup": true
  },
  "model": {
    "type": "WordPiece",
    "unk_token": "[UNK]",
    "continuing_subword_prefix": "##",
    "max_input_chars_per_word": 100,
    "vocab": {
      "[PAD]": 0,
      "[UNK]": 1,
      "[CLS]": 2,
      "[SEP]": 3,
      "[MASK]": 4,
      "!": 5,
      "\"": 6,
      "#": 7,
      "$": 8,
      "%": 9,
      "&": 10,
      "'": 11,
      "(": 12,
      ")": 13,
      "*": 14,
      "+": 15,
      ",": 16,
      "-": 17,
      ".": 18,
      "/": 19,
      "0": 20,
      "1": 21,
      "2": 22,
      "3": 23,
      "4": 24,
      "5": 25,
      "6": 26,
      "7": 27,
      "8": 28,
      "9": 29,
      ":": 30,
      ";": 31,
      "<": 32,
      "=": 33,
      ">": 34,
      "?": 35,
      "@": 36,
      "[": 37,
      "\\": 38,
      "]": 39,
      "^": 40,
      "_": 41,
      "`": 42,
      "a": 43,
      "b": 44,
      "c": 45,
      "d": 46,
      "e": 47,
      "f": 48,
      "g": 49,
      "h": 50,
      "i": 51,
      "j": 52,
      "k": 53,
      "l": 54,
      "m": 55,
      "n": 56,
      "o": 57,
      "p": 58,
      "q": 59,
      "r": 60,
      "s": 61,
      "t": 62,
      "u": 63,
      "v": 64,
      "w": 65,
      "x": 66,
      "y": 67,
      "z": 68,
      "{": 69,
      "|": 70,
      "}": 71,
      "~": 72,
      "¡": 73,
      "¢": 74,
      "£": 75,
      "¤": 76,
      "¥": 77,
      "¦": 78,
      "§": 79,
      "¨": 80,
      "©": 81,
      "ª": 82,
      "«": 83,
      "¬": 84,
      "®": 85,
      "¯": 86,
      "°": 87,
      "±": 88,
      "²": 89,
      "³": 90,
      "´": 91,
      "µ": 92,
      "¶": 93,
      "·": 94,
      "¸": 95,
      "¹": 96,
      "º": 97,
      "»": 98,
      "¼": 99,
      "½": 100,
      "¾": 101,
      "¿": 102,
      "×": 103,
      "ß": 104,
      "æ": 105,
      "ð": 106,
      "÷": 107,
      "ø": 108,
      "þ": 109,
      "ŋ": 110,
      "œ": 111,
      "ƒ": 112,
      "ə": 113,
      "ʻ": 114,
      "ˆ": 115,
      "ˈ": 116,
      "˜": 117,
      "μ": 118,
      "ν": 119,
      "π": 120,
      "σ": 121,
      "χ": 122,
      "ϖ": 123,
      "٫": 124,
      "ᄀ": 125,
      "ᄋ": 126,
      "ᅩ": 127,
      "ᅮ": 128,
      "ᅵ": 129,
      "‐": 130,
      "‑": 131,
      "‒": 132,
      "–": 133,
      "—": 134,
      "―": 135,
      "‖": 136,
      "‘": 137,
      "’": 138,
      "‚": 139,
      "“": 140,
      "”": 141,
      "„": 142,
      "†": 143,
      "‡": 144,
      "•": 145,
      "…": 146,
      "′": 147,
      "›": 148,
      "⁃": 149,
      "⁄": 150,
      "⁰": 151,
      "⁵": 152,
      "⁻": 153,
      "€": 154,
      "ℑ": 155,
      "℘": 156,
      "ℜ": 157,
      "℞": 158,
      "℠": 159,
      "™": 160,
      "ℴ": 161,
      "ⅅ": 162,
      "ⅇ": 163,
      "ⅈ": 164,
      "⅓": 165,
      "⅔": 166,
      "←": 167,
      "↑": 168,
      "→": 169,
      "↦": 170,
      "↵": 171,
      "⇒": 172,
      "∁": 173,
      "∂": 174,
      "∃": 175,
      "∇": 176,
      "∈": 177,
      "∋": 178,
      "∏": 179,
      "∑": 180,
      "−": 181,
      "∣": 182,
      "∥": 183,
      "∧": 184,
      "∨": 185,
      "∪": 186,
      "∫": 187,
      "∬": 188,
      "∵": 189,
      "∷": 190,
      "∼": 191,
      "∾": 192,
      "≀": 193,
      "≈": 194,
      "≔": 195,
      "≡": 196,
      "≤": 197,
      "≥": 198,
      "≪": 199,
      "≫": 200,
      "≶": 201,
      "≷": 202,
      "≺": 203,
      "≻": 204,
      "⊂": 205,
      "⊃": 206,
      "⊇": 207,
      "⊤": 208,
      "⊥": 209,
      "⋆": 210,
      "⋐": 211,
      "⋑": 212,
      "⋒": 213,
      "⌖": 214,
      "ⓡ": 215,
      "─": 216,
      "■": 217,
      "□": 218,
      "▪": 219,
      "▫": 220,
      "▲": 221,
      "▸": 222,
      "►": 223,
      "◄": 224,
      "○": 225,
      "●": 226,
      "◦": 227,
      "◾": 228,
      "★": 229,
      "☆": 230,
      "☎": 231,
      "♣": 232,
      "♦": 233,
      "♮": 234,
      "✅": 235,
      "✈": 236,
      "✓": 237,
      "✔": 238,
      "✗": 239,
      "✴": 240,
      "❤": 241,
      "⟨": 242,
      "⟪": 243,
      "⠀": 244,
      "⩓": 245,
      "⩔": 246,
      "⩝": 247,
      "⩵": 248,
      "⪈": 249,
      "⪙": 250,
      "⪚": 251,
      "⪫": 252,
      "⪭": 253,
      "⪯": 254,
      "⪻": 255,
      "⪼": 256,
      "⫬": 257,
      "・": 258,
      "一": 259,
      "中": 260,
      "位": 261,
      "作": 262,
      "全": 263,
      "兼": 264,
      "型": 265,
      "填": 266,
      "小": 267,
      "工": 268,
      "必": 269,
      "文": 270,
      "时": 271,
      "每": 272,
      "站": 273,
      "类": 274,
      "网": 275,
      "职": 276,
      "薪": 277,
      "言": 278,
      "语": 279,
      "资": 280,
      "起": 281,
      "ﬁ": 282,
      "ﬃ": 283,
      "，": 284,
      "￼": 285,
      "𝔦": 286,
      "🎉": 287,
      "🏆": 288,
      "💼": 289,
      "📁": 290,
      "📅": 291,
      "📱": 292,
      "🔍": 293,
      "🔥": 294,
      "😎": 295,
      "🤩": 296,
      "🩺": 297,
      "##0": 298,
      "##6": 299,
      "##7": 300,
      "##b": 301,
      "##r": 302,
      "##p": 303,
      "##e": 304,
      "##o": 305,
      "##s": 306,
      "##a": 307,
      "##l": 308,
      "##t": 309,
      "##k": 310,
      "##w": 311,
      "##i": 312,
      "##h": 313,
      "##j": 314,
      "##c": 315,
      "##y": 316,
      "##4": 317,
      "##5": 318,
      "##2": 319,
      "##u": 320,
      "##3": 321,
      "##8": 322,
      "##1": 323,
      "##9": 324,
      "##m": 325,
      "##n": 326,
      "##f": 327,
      "##d": 328,
      "##x": 329,
      "##°": 330,
      "##g": 331,
      "##©": 332,
      "##v": 333,
      "##q": 334,
      "##®": 335,
      "##z": 336,
      "##¢": 337,
      "##¦": 338,
      "##´": 339,
      "##æ": 340,
      "##¸": 341,
      "##¹": 342,
      "##™": 343,
      "##€": 344,
      "##¨": 345,
      "##⪻": 346,
      "##¬": 347,
      "##ß": 348,
      "##¥": 349,
      "##£": 350,
      "##±": 351,
      "##≈": 352,
      "##∁": 353,
      "##☆": 354,
      "##∈": 355,
      "##²": 356,
      "##∾": 357,
      "##ℜ": 358,
      "##✓": 359,
      "##½": 360,
      "##¼": 361,
      "##ⅇ": 362,
      "##ø": 363,
      "##⪙": 364,
      "##📅": 365,
      "##⊃": 366,
      "##∬": 367,
      "##¯": 368,
      "##º": 369,
      "##≻": 370,
      "##≺": 371,
      "##ª": 372,
      "##¤": 373,
      "##⋑": 374,
      "##³": 375,
      "##þ": 376,
      "##∂": 377,
      "##ð": 378,
      "##≪": 379,
      "##ʻ": 380,
      "##∨": 381,
      "##⊂": 382,
      "##≤": 383,
      "##⪼": 384,
      "##⁄": 385,
      "##×": 386,
      "##µ": 387,
      "##⌖": 388,
      "##ŋ": 389,
      "##∧": 390,
      "##−": 391,
      "##œ": 392,
      "##◦": 393,
      "##∫": 394,
      "##∣": 395,
      "##ⅈ": 396,
      "##🔍": 397,
      "##¾": 398,
      "##⋆": 399,
      "##●": 400,
      "##≥": 401,
      "##ⅅ": 402,
      "##ﬁ": 403,
      "##💼": 404,
      "##∏": 405,
      "##🎉": 406,
      "##↦": 407,
      "##∇": 408,
      "##○": 409,
      "##⪯": 410,
      "##℠": 411,
      "##χ": 412,
      "##ℑ": 413,
      "##≶": 414,
      "##÷": 415,
      "##►": 416,
      "##℞": 417,
      "##ν": 418,
      "##∥": 419,
      "##⋒": 420,
      "##◾": 421,
      "##≷": 422,
      "##μ": 423,
      "##∑": 424,
      "##✗": 425,
      "##⋐": 426,
      "##π": 427,
      "##⪈": 428,
      "##✔": 429,
      "##♮": 430,
      "##填": 431,
      "##⩔": 432,
      "##⁰": 433,
      "##∼": 434,
      "##→": 435,
      "##⩵": 436,
      "##职": 437,
      "##一": 438,
      "##≀": 439,
      "##ﬃ": 440,
      "##⊤": 441,
      "##位": 442,
      "##类": 443,
      "##型": 444,
      "##ℴ": 445,
      "##℘": 446,
      "##文": 447,
      "##网": 448,
      "##站": 449,
      "##σ": 450,
      "##作": 451,
      "##语": 452,
      "##言": 453,
      "##资": 454,
      "##★": 455,
      "##ƒ": 456,
      "##ⓡ": 457,
      "##⫬": 458,
      "##✅": 459,
      "##⩝": 460,
      "##⊇": 461,
      "##起": 462,
      "##≫": 463,
      "##⪫": 464,
      "##ᅩ": 465,
      "##ᄀ": 466,
      "##ᅵ": 467,
      "##ᅮ": 468,
      "##ᄋ": 469,
      "##⁵": 470,
      "##∃": 471,
      "##📁": 472,
      "##□": 473,
      "##ə": 474,
      "##∪": 475,
      "##𝔦": 476,
      "##≡": 477,
      "##小": 478,
      "##时": 479,
      "##er": 480,
      "##ti": 481,
      "##on": 482,
      "##es": 483,
      "##nd": 484,
      "##in": 485,
      "##en": 486,
      "##or": 487,
      "##al": 488,
      "and": 489,
      "##tion": 490,
      "##ed": 491,
      "th": 492,
      "##it": 493,
      "##an": 494,
      "##ing": 495,
      "##ar": 496,
      "##ent": 497,
      "##ic": 498,
      "in": 499,
      "##ro": 500,
      "##at": 501,
      "to": 502,
      "the": 503,
      "##ur": 504,
      "##st": 505,
      "##il": 506,
      "##ation": 507,
      "##om": 508,
      "re": 509,
      "of": 510,
      "##re": 511,
      "##le": 512,
      "##ce": 513,
      "##si": 514,
      "pro": 515,
      "##ve": 516,
      "##ment": 517,
      "com": 518,
      "##ec": 519,
      "##ou": 520,
      "##is": 521,
      "##lo": 522,
      "##ac": 523,
      "st": 524,
      "or": 525,
      "##pp": 526,
      "ex": 527,
      "##ers": 528,
      "for": 529,
      "##ity": 530,
      "##ith": 531,
      "as": 532,
      "with": 533,
      "##as": 534,
      "##ly": 535,
      "de": 536,
      "##per": 537,
      "##id": 538,
      "##ol": 539,
      "##ate": 540,
      "##th": 541,
      "##qu": 542,
      "##ng": 543,
      "comp": 544,
      "##ir": 545,
      "##ri": 546,
      "##ge": 547,
      "##ll": 548,
      "##ts": 549,
      "jo": 550,
      "##ess": 551,
      "##am": 552,
      "con": 553,
      "##ork": 554,
      "##ting": 555,
      "job": 556,
      "##uc": 557,
      "##ust": 558,
      "##ill": 559,
      "##ain": 560,
      "##mp": 561,
      "ac": 562,
      "##ig": 563,
      "##et": 564,
      "##ab": 565,
      "we": 566,
      "an": 567,
      "work": 568,
      "##un": 569,
      "on": 570,
      "##oc": 571,
      "is": 572,
      "##ence": 573,
      "##ay": 574,
      "be": 575,
      "##if": 576,
      "res": 577,
      "##our": 578,
      "app": 579,
      "##im": 580,
      "po": 581,
      "##ter": 582,
      "##ul": 583,
      "##for": 584,
      "exper": 585,
      "requ": 586,
      "##and": 587,
      "##ations": 588,
      "##are": 589,
      "##ad": 590,
      "man": 591,
      "##ch": 592,
      "##us": 593,
      "experi": 594,
      "su": 595,
      "en": 596,
      "##ties": 597,
      "le": 598,
      "##el": 599,
      "##ort": 600,
      "##ver": 601,
      "you": 602,
      "ab": 603,
      "experience": 604,
      "##ual": 605,
      "tr": 606,
      "are": 607,
      "##ance": 608,
      "ser": 609,
      "##ip": 610,
      "##tive": 611,
      "##form": 612,
      "##se": 613,
      "##ud": 614,
      "##sion": 615,
      "##ility": 616,
      "compan": 617,
      "emp": 618,
      "##ire": 619,
      "##loy": 620,
      "##age": 621,
      "##li": 622,
      "serv": 623,
      "ne": 624,
      "##ut": 625,
      "employ": 626,
      "##duc": 627,
      "our": 628,
      "te": 629,
      "##ail": 630,
      "company": 631,
      "ad": 632,
      "##vid": 633,
      "inc": 634,
      "servic": 635,
      "##ical": 636,
      "per": 637,
      "wh": 638,
      "##ear": 639,
      "##ot": 640,
      "##od": 641,
      "##em": 642,
      "at": 643,
      "##ities": 644,
      "##ow": 645,
      "comm": 646,
      "##tions": 647,
      "acc": 648,
      "tim": 649,
      "##pport": 650,
      "all": 651,
      "##ag": 652,
      "##ments": 653,
      "##lic": 654,
      "this": 655,
      "cust": 656,
      "custom": 657,
      "##art": 658,
      "##ist": 659,
      "ch": 660,
      "des": 661,
      "##tic": 662,
      "##end": 663,
      "time": 664,
      "will": 665,
      "##um": 666,
      "sh": 667,
      "##ard": 668,
      "sp": 669,
      "##est": 670,
      "pre": 671,
      "##fer": 672,
      "##ial": 673,
      "##ave": 674,
      "##ary": 675,
      "requir": 676,
      "sk": 677,
      "pl": 678,
      "care": 679,
      "##ee": 680,
      "##ure": 681,
      "##igh": 682,
      "##ff": 683,
      "provid": 684,
      "skill": 685,
      "##ated": 686,
      "assi": 687,
      "incl": 688,
      "##pon": 689,
      "##ther": 690,
      "team": 691,
      "your": 692,
      "##ies": 693,
      "##ect": 694,
      "posi": 695,
      "##ine": 696,
      "##rou": 697,
      "loc": 698,
      "that": 699,
      "by": 700,
      "##ech": 701,
      "##gr": 702,
      "##ates": 703,
      "sal": 704,
      "##able": 705,
      "includ": 706,
      "qual": 707,
      "skills": 708,
      "##iz": 709,
      "required": 710,
      "he": 711,
      "##ore": 712,
      "ind": 713,
      "proc": 714,
      "inter": 715,
      "##ant": 716,
      "us": 717,
      "respon": 718,
      "cont": 719,
      "co": 720,
      "applic": 721,
      "dis": 722,
      "##iv": 723,
      "year": 724,
      "##oun": 725,
      "##sib": 726,
      "pr": 727,
      "manage": 728,
      "##act": 729,
      "##fic": 730,
      "##velo": 731,
      "##ct": 732,
      "develo": 733,
      "tech": 734,
      "##ke": 735,
      "ability": 736,
      "##ach": 737,
      "other": 738,
      "commun": 739,
      "un": 740,
      "rep": 741,
      "##alth": 742,
      "##cri": 743,
      "develop": 744,
      "pa": 745,
      "##enti": 746,
      "##ents": 747,
      "rel": 748,
      "##ans": 749,
      "ph": 750,
      "reg": 751,
      "equ": 752,
      "must": 753,
      "techn": 754,
      "##ord": 755,
      "main": 756,
      "service": 757,
      "inform": 758,
      "##ie": 759,
      "perform": 760,
      "##king": 761,
      "health": 762,
      "responsib": 763,
      "rec": 764,
      "maint": 765,
      "##ption": 766,
      "##iness": 767,
      "produc": 768,
      "position": 769,
      "information": 770,
      "sch": 771,
      "bus": 772,
      "##00": 773,
      "##ap": 774,
      "customer": 775,
      "##pportun": 776,
      "se": 777,
      "opportun": 778,
      "management": 779,
      "require": 780,
      "str": 781,
      "##os": 782,
      "business": 783,
      "have": 784,
      "fu": 785,
      "need": 786,
      "##enc": 787,
      "progr": 788,
      "##ific": 789,
      "##aining": 790,
      "##red": 791,
      "##tiv": 792,
      "##ilities": 793,
      "##yst": 794,
      "not": 795,
      "manag": 796,
      "##out": 797,
      "cl": 798,
      "kn": 799,
      "col": 800,
      "##gh": 801,
      "##01": 802,
      "##ase": 803,
      "lead": 804,
      "sales": 805,
      "descri": 806,
      "##all": 807,
      "spec": 808,
      "al": 809,
      "##ack": 810,
      "oper": 811,
      "program": 812,
      "##ree": 813,
      "##ign": 814,
      "lo": 815,
      "services": 816,
      "apply": 817,
      "imp": 818,
      "full": 819,
      "know": 820,
      "assist": 821,
      "##ational": 822,
      "go": 823,
      "##ong": 824,
      "##ry": 825,
      "ass": 826,
      "ma": 827,
      "hour": 828,
      "##led": 829,
      "educ": 830,
      "high": 831,
      "id": 832,
      "location": 833,
      "##ene": 834,
      "##op": 835,
      "##ative": 836,
      "##its": 837,
      "##str": 838,
      "med": 839,
      "part": 840,
      "dire": 841,
      "sa": 842,
      "communic": 843,
      "requirements": 844,
      "##low": 845,
      "##ystem": 846,
      "##te": 847,
      "description": 848,
      "##rom": 849,
      "##log": 850,
      "up": 851,
      "##hip": 852,
      "process": 853,
      "##anc": 854,
      "##iew": 855,
      "prof": 856,
      "system": 857,
      "years": 858,
      "including": 859,
      "dep": 860,
      "suc": 861,
      "from": 862,
      "##ace": 863,
      "##ss": 864,
      "me": 865,
      "##ous": 866,
      "ins": 867,
      "##der": 868,
      "new": 869,
      "##olog": 870,
      "exce": 871,
      "##ession": 872,
      "##ures": 873,
      "##ory": 874,
      "##ledge": 875,
      "ag": 876,
      "more": 877,
      "support": 878,
      "##gn": 879,
      "##ues": 880,
      "##tail": 881,
      "##vel": 882,
      "mar": 883,
      "knowledge": 884,
      "##erson": 885,
      "##ome": 886,
      "##ift": 887,
      "env": 888,
      "education": 889,
      "training": 890,
      "eng": 891,
      "##iron": 892,
      "dri": 893,
      "environ": 894,
      "##ors": 895,
      "##ision": 896,
      "prefer": 897,
      "ens": 898,
      "##min": 899,
      "mo": 900,
      "sol": 901,
      "level": 902,
      "comple": 903,
      "##ating": 904,
      "##ount": 905,
      "mon": 906,
      "##ble": 907,
      "##ere": 908,
      "out": 909,
      "##ens": 910,
      "##nder": 911,
      "cli": 912,
      "it": 913,
      "proj": 914,
      "environment": 915,
      "sta": 916,
      "em": 917,
      "bene": 918,
      "may": 919,
      "##ks": 920,
      "benef": 921,
      "direct": 922,
      "du": 923,
      "pati": 924,
      "##ast": 925,
      "##di": 926,
      "pri": 927,
      "org": 928,
      "ro": 929,
      "##yp": 930,
      "under": 931,
      "provide": 932,
      "##ite": 933,
      "post": 934,
      "##ld": 935,
      "##als": 936,
      "profession": 937,
      "##view": 938,
      "employment": 939,
      "bas": 940,
      "opportunity": 941,
      "maintain": 942,
      "eff": 943,
      "day": 944,
      "##one": 945,
      "customers": 946,
      "##ifications": 947,
      "##ability": 948,
      "dat": 949,
      "their": 950,
      "##rough": 951,
      "anal": 952,
      "par": 953,
      "sc": 954,
      "##ied": 955,
      "typ": 956,
      "organ": 957,
      "##ia": 958,
      "development": 959,
      "##ys": 960,
      "preferred": 961,
      "##ient": 962,
      "working": 963,
      "fun": 964,
      "through": 965,
      "organiz": 966,
      "##eral": 967,
      "person": 968,
      "stand": 969,
      "201": 970,
      "benefits": 971,
      "##ber": 972,
      "exp": 973,
      "offic": 974,
      "##ek": 975,
      "manager": 976,
      "state": 977,
      "##ited": 978,
      "pay": 979,
      "lic": 980,
      "##ft": 981,
      "appro": 982,
      "duties": 983,
      "min": 984,
      "##ile": 985,
      "do": 986,
      "##ild": 987,
      "jobs": 988,
      "nur": 989,
      "##ish": 990,
      "mat": 991,
      "##ential": 992,
      "##ving": 993,
      "saf": 994,
      "fi": 995,
      "hours": 996,
      "##ees": 997,
      "plan": 998,
      "sec": 999,
      "##ion": 1000,
      "##ning": 1001,
      "cre": 1002,
      "am": 1003,
      "staff": 1004,
      "if": 1005,
      "fin": 1006,
      "##ven": 1007,
      "##bs": 1008,
      "medical": 1009,
      "any": 1010,
      "op": 1011,
      "##very": 1012,
      "qualifications": 1013,
      "week": 1014,
      "inv": 1015,
      "assign": 1016,
      "responsibilities": 1017,
      "mem": 1018,
      "shift": 1019,
      "sched": 1020,
      "deli": 1021,
      "over": 1022,
      "fol": 1023,
      "##itt": 1024,
      "hel": 1025,
      "career": 1026,
      "##ety": 1027,
      "related": 1028,
      "##ru": 1029,
      "about": 1030,
      "##oci": 1031,
      "##tional": 1032,
      "super": 1033,
      "func": 1034,
      "follow": 1035,
      "##urance": 1036,
      "doc": 1037,
      "##ology": 1038,
      "strong": 1039,
      "so": 1040,
      "employer": 1041,
      "##ective": 1042,
      "pe": 1043,
      "bu": 1044,
      "no": 1045,
      "ar": 1046,
      "indust": 1047,
      "cle": 1048,
      "design": 1049,
      "val": 1050,
      "##ards": 1051,
      "##ass": 1052,
      "##row": 1053,
      "##ult": 1054,
      "data": 1055,
      "trans": 1056,
      "one": 1057,
      "depart": 1058,
      "associ": 1059,
      "gen": 1060,
      "##lease": 1061,
      "pol": 1062,
      "bo": 1063,
      "dem": 1064,
      "employees": 1065,
      "professional": 1066,
      "##ense": 1067,
      "##ateg": 1068,
      "stat": 1069,
      "special": 1070,
      "help": 1071,
      "consi": 1072,
      "indi": 1073,
      "quality": 1074,
      "##ool": 1075,
      "supp": 1076,
      "sub": 1077,
      "well": 1078,
      "deg": 1079,
      "cer": 1080,
      "##istr": 1081,
      "proced": 1082,
      "adv": 1083,
      "status": 1084,
      "ensure": 1085,
      "please": 1086,
      "analy": 1087,
      "able": 1088,
      "br": 1089,
      "##tin": 1090,
      "##ital": 1091,
      "##ants": 1092,
      "insurance": 1093,
      "##sis": 1094,
      "school": 1095,
      "##ency": 1096,
      "phys": 1097,
      "##earch": 1098,
      "engine": 1099,
      "application": 1100,
      "polic": 1101,
      "##ful": 1102,
      "degree": 1103,
      "##ipment": 1104,
      "can": 1105,
      "la": 1106,
      "##reat": 1107,
      "##cess": 1108,
      "##uring": 1109,
      "##ms": 1110,
      "##urr": 1111,
      "identi": 1112,
      "who": 1113,
      "##so": 1114,
      "detail": 1115,
      "type": 1116,
      "lif": 1117,
      "responsible": 1118,
      "##ise": 1119,
      "equipment": 1120,
      "within": 1121,
      "##vidual": 1122,
      "individual": 1123,
      "##ects": 1124,
      "##ivers": 1125,
      "email": 1126,
      "##stand": 1127,
      "cent": 1128,
      "superv": 1129,
      "systems": 1130,
      "success": 1131,
      "docu": 1132,
      "certi": 1133,
      "gu": 1134,
      "##les": 1135,
      "communication": 1136,
      "##work": 1137,
      "procedures": 1138,
      "##iti": 1139,
      "fac": 1140,
      "##utions": 1141,
      "intern": 1142,
      "cand": 1143,
      "regul": 1144,
      "candid": 1145,
      "ver": 1146,
      "prac": 1147,
      "excell": 1148,
      "office": 1149,
      "curr": 1150,
      "grow": 1151,
      "##ware": 1152,
      "##ner": 1153,
      "##ue": 1154,
      "##ight": 1155,
      "repor": 1156,
      "##ty": 1157,
      "##ici": 1158,
      "ev": 1159,
      "include": 1160,
      "##line": 1161,
      "department": 1162,
      "needs": 1163,
      "fr": 1164,
      "##struc": 1165,
      "fe": 1166,
      "##lect": 1167,
      "peop": 1168,
      "hand": 1169,
      "project": 1170,
      "##omm": 1171,
      "cor": 1172,
      "li": 1173,
      "engineer": 1174,
      "prot": 1175,
      "store": 1176,
      "products": 1177,
      "##ide": 1178,
      "av": 1179,
      "ta": 1180,
      "##ract": 1181,
      "employee": 1182,
      "minim": 1183,
      "people": 1184,
      "effective": 1185,
      "##ey": 1186,
      "##alent": 1187,
      "##lish": 1188,
      "see": 1189,
      "admin": 1190,
      "equal": 1191,
      "build": 1192,
      "posted": 1193,
      "##amil": 1194,
      "opportunities": 1195,
      "var": 1196,
      "use": 1197,
      "##tical": 1198,
      "product": 1199,
      "technical": 1200,
      "##ra": 1201,
      "lear": 1202,
      "current": 1203,
      "license": 1204,
      "##sing": 1205,
      "famil": 1206,
      "##round": 1207,
      "salary": 1208,
      "##esent": 1209,
      "activ": 1210,
      "cons": 1211,
      "patient": 1212,
      "contact": 1213,
      "industry": 1214,
      "##eter": 1215,
      "##ood": 1216,
      "##day": 1217,
      "account": 1218,
      "assigned": 1219,
      "rece": 1220,
      "based": 1221,
      "att": 1222,
      "solutions": 1223,
      "review": 1224,
      "##ound": 1225,
      "understand": 1226,
      "##ified": 1227,
      "##ich": 1228,
      "loo": 1229,
      "##mm": 1230,
      "fed": 1231,
      "##ership": 1232,
      "##ious": 1233,
      "mul": 1234,
      "##int": 1235,
      "chan": 1236,
      "ter": 1237,
      "safety": 1238,
      "##abor": 1239,
      "##ordin": 1240,
      "##pri": 1241,
      "##avel": 1242,
      "has": 1243,
      "##osp": 1244,
      "multi": 1245,
      "secur": 1246,
      "##care": 1247,
      "##sive": 1248,
      "client": 1249,
      "prep": 1250,
      "##ior": 1251,
      "##ines": 1252,
      "travel": 1253,
      "##ics": 1254,
      "##av": 1255,
      "back": 1256,
      "disc": 1257,
      "int": 1258,
      "##onstr": 1259,
      "financ": 1260,
      "veter": 1261,
      "avail": 1262,
      "technology": 1263,
      "##eld": 1264,
      "orient": 1265,
      "##ep": 1266,
      "demonstr": 1267,
      "##ental": 1268,
      "##ash": 1269,
      "offer": 1270,
      "relations": 1271,
      "excellent": 1272,
      "minimum": 1273,
      "security": 1274,
      "financial": 1275,
      "##ode": 1276,
      "##ible": 1277,
      "disability": 1278,
      "##bal": 1279,
      "wr": 1280,
      "off": 1281,
      "##ution": 1282,
      "10": 1283,
      "##ings": 1284,
      "##roup": 1285,
      "addi": 1286,
      "certific": 1287,
      "##ected": 1288,
      "ob": 1289,
      "##bers": 1290,
      "##priate": 1291,
      "stud": 1292,
      "general": 1293,
      "coordin": 1294,
      "car": 1295,
      "gr": 1296,
      "national": 1297,
      "pu": 1298,
      "appropriate": 1299,
      "operations": 1300,
      "20": 1301,
      "##ule": 1302,
      "needed": 1303,
      "clients": 1304,
      "group": 1305,
      "sex": 1306,
      "administr": 1307,
      "standards": 1308,
      "date": 1309,
      "net": 1310,
      "applicants": 1311,
      "imple": 1312,
      "life": 1313,
      "soft": 1314,
      "tit": 1315,
      "programs": 1316,
      "marke": 1317,
      "colle": 1318,
      "best": 1319,
      "##ission": 1320,
      "000": 1321,
      "but": 1322,
      "resour": 1323,
      "performance": 1324,
      "accoun": 1325,
      "role": 1326,
      "software": 1327,
      "meet": 1328,
      "title": 1329,
      "looking": 1330,
      "online": 1331,
      "proble": 1332,
      "clin": 1333,
      "schedule": 1334,
      "call": 1335,
      "est": 1336,
      "what": 1337,
      "00": 1338,
      "law": 1339,
      "open": 1340,
      "prior": 1341,
      "exec": 1342,
      "##tim": 1343,
      "##ross": 1344,
      "home": 1345,
      "hosp": 1346,
      "center": 1347,
      "physical": 1348,
      "consider": 1349,
      "such": 1350,
      "wor": 1351,
      "activities": 1352,
      "impro": 1353,
      "strateg": 1354,
      "than": 1355,
      "clean": 1356,
      "##mentation": 1357,
      "healthcare": 1358,
      "great": 1359,
      "##ays": 1360,
      "fle": 1361,
      "compu": 1362,
      "tas": 1363,
      "##ticip": 1364,
      "every": 1365,
      "members": 1366,
      "record": 1367,
      "clo": 1368,
      "set": 1369,
      "providing": 1370,
      "deliver": 1371,
      "##air": 1372,
      "iss": 1373,
      "##ould": 1374,
      "##tives": 1375,
      "##ont": 1376,
      "contin": 1377,
      "inte": 1378,
      "make": 1379,
      "##enance": 1380,
      "maintenance": 1381,
      "##vers": 1382,
      "recru": 1383,
      "computer": 1384,
      "fir": 1385,
      "functions": 1386,
      "##ces": 1387,
      "phone": 1388,
      "paid": 1389,
      "supervis": 1390,
      "tool": 1391,
      "retail": 1392,
      "provides": 1393,
      "area": 1394,
      "when": 1395,
      "relationship": 1396,
      "##ized": 1397,
      "contro": 1398,
      "also": 1399,
      "hir": 1400,
      "available": 1401,
      "now": 1402,
      "vis": 1403,
      "##eti": 1404,
      "food": 1405,
      "ess": 1406,
      "##cc": 1407,
      "states": 1408,
      "world": 1409,
      "mer": 1410,
      "reports": 1411,
      "field": 1412,
      "chec": 1413,
      "##rib": 1414,
      "qu": 1415,
      "proper": 1416,
      "using": 1417,
      "vision": 1418,
      "##ose": 1419,
      "flex": 1420,
      "marketing": 1421,
      "mod": 1422,
      "##ive": 1423,
      "read": 1424,
      "compli": 1425,
      "personal": 1426,
      "policies": 1427,
      "essential": 1428,
      "##ipl": 1429,
      "successful": 1430,
      "projects": 1431,
      "which": 1432,
      "particip": 1433,
      "community": 1434,
      "##ently": 1435,
      "patients": 1436,
      "el": 1437,
      "engineering": 1438,
      "complete": 1439,
      "##acy": 1440,
      "while": 1441,
      "organization": 1442,
      "##ume": 1443,
      "##amp": 1444,
      "regard": 1445,
      "##tit": 1446,
      "month": 1447,
      "identif": 1448,
      "##ice": 1449,
      "join": 1450,
      "following": 1451,
      "they": 1452,
      "united": 1453,
      "accur": 1454,
      "##ick": 1455,
      "##iversity": 1456,
      "improve": 1457,
      "equiv": 1458,
      "nursing": 1459,
      "##ok": 1460,
      "key": 1461,
      "##ress": 1462,
      "local": 1463,
      "##ves": 1464,
      "12": 1465,
      "network": 1466,
      "##ame": 1467,
      "##ute": 1468,
      "pos": 1469,
      "##tics": 1470,
      "##tc": 1471,
      "##itten": 1472,
      "##ason": 1473,
      "##ator": 1474,
      "ow": 1475,
      "prom": 1476,
      "good": 1477,
      "fl": 1478,
      "written": 1479,
      "condi": 1480,
      "##wer": 1481,
      "competi": 1482,
      "add": 1483,
      "contract": 1484,
      "order": 1485,
      "equivalent": 1486,
      "##ov": 1487,
      "details": 1488,
      "##ib": 1489,
      "num": 1490,
      "coll": 1491,
      "##pr": 1492,
      "issues": 1493,
      "foc": 1494,
      "nec": 1495,
      "tools": 1496,
      "age": 1497,
      "##tern": 1498,
      "color": 1499,
      "additional": 1500,
      "focus": 1501,
      "aut": 1502,
      "integr": 1503,
      "some": 1504,
      "##ician": 1505,
      "control": 1506,
      "##ister": 1507,
      "ba": 1508,
      "sen": 1509,
      "each": 1510,
      "nurse": 1511,
      "learn": 1512,
      "mee": 1513,
      "rem": 1514,
      "pur": 1515,
      "necess": 1516,
      "##eric": 1517,
      "##ges": 1518,
      "hospital": 1519,
      "19": 1520,
      "##arge": 1521,
      "##ction": 1522,
      "leadership": 1523,
      "##oma": 1524,
      "##ath": 1525,
      "##ton": 1526,
      "search": 1527,
      "mater": 1528,
      "research": 1529,
      "ban": 1530,
      "federal": 1531,
      "applications": 1532,
      "basic": 1533,
      "qualified": 1534,
      "collabor": 1535,
      "##ablish": 1536,
      "pack": 1537,
      "##eep": 1538,
      "mail": 1539,
      "schedul": 1540,
      "##ilit": 1541,
      "##jo": 1542,
      "occ": 1543,
      "##por": 1544,
      "sign": 1545,
      "establish": 1546,
      "ve": 1547,
      "etc": 1548,
      "resources": 1549,
      "refer": 1550,
      "ca": 1551,
      "conf": 1552,
      "##pt": 1553,
      "compliance": 1554,
      "merch": 1555,
      "goals": 1556,
      "##ouse": 1557,
      "##ender": 1558,
      "##achel": 1559,
      "dental": 1560,
      "clinical": 1561,
      "elect": 1562,
      "inf": 1563,
      "accord": 1564,
      "##ders": 1565,
      "##igin": 1566,
      "origin": 1567,
      "areas": 1568,
      "##tis": 1569,
      "americ": 1570,
      "material": 1571,
      "pub": 1572,
      "bachel": 1573,
      "summ": 1574,
      "repr": 1575,
      "guid": 1576,
      "necessary": 1577,
      "monit": 1578,
      "cap": 1579,
      "hiring": 1580,
      "family": 1581,
      "individuals": 1582,
      "assistant": 1583,
      "mark": 1584,
      "cri": 1585,
      "certification": 1586,
      "protected": 1587,
      "prepar": 1588,
      "own": 1589,
      "fa": 1590,
      "##alu": 1591,
      "##pl": 1592,
      "site": 1593,
      "internal": 1594,
      "rest": 1595,
      "both": 1596,
      "##ww": 1597,
      "a¢": 1598,
      "plans": 1599,
      "ext": 1600,
      "hol": 1601,
      "##ness": 1602,
      "tasks": 1603,
      "candidates": 1604,
      "without": 1605,
      "##ground": 1606,
      "##ages": 1607,
      "##tice": 1608,
      "##erg": 1609,
      "veteran": 1610,
      "gender": 1611,
      "tes": 1612,
      "dail": 1613,
      "merchand": 1614,
      "evalu": 1615,
      "candidate": 1616,
      "competitive": 1617,
      "daily": 1618,
      "effectively": 1619,
      "processes": 1620,
      "##ple": 1621,
      "nor": 1622,
      "electr": 1623,
      "##urn": 1624,
      "50": 1625,
      "www": 1626,
      "list": 1627,
      "dec": 1628,
      "##itted": 1629,
      "instruc": 1630,
      "subm": 1631,
      "background": 1632,
      "##ink": 1633,
      "orientation": 1634,
      "relationships": 1635,
      "create": 1636,
      "count": 1637,
      "associate": 1638,
      "ht": 1639,
      "suppor": 1640,
      "resume": 1641,
      "sur": 1642,
      "##ved": 1643,
      "here": 1644,
      "how": 1645,
      "##arm": 1646,
      "##iting": 1647,
      "##ults": 1648,
      "##tain": 1649,
      "##ward": 1650,
      "##ade": 1651,
      "##tices": 1652,
      "days": 1653,
      "city": 1654,
      "most": 1655,
      "sit": 1656,
      "##elf": 1657,
      "##nel": 1658,
      "##ensive": 1659,
      "cal": 1660,
      "interp": 1661,
      "where": 1662,
      "ran": 1663,
      "its": 1664,
      "initi": 1665,
      "##edi": 1666,
      "report": 1667,
      "sm": 1668,
      "resid": 1669,
      "register": 1670,
      "au": 1671,
      "enter": 1672,
      "30": 1673,
      "delivery": 1674,
      "inn": 1675,
      "meeting": 1676,
      "log": 1677,
      "##thers": 1678,
      "prim": 1679,
      "##ately": 1680,
      "flexible": 1681,
      "fast": 1682,
      "lim": 1683,
      "##fact": 1684,
      "11": 1685,
      "plus": 1686,
      "class": 1687,
      "market": 1688,
      "tw": 1689,
      "planning": 1690,
      "compens": 1691,
      "safe": 1692,
      "dipl": 1693,
      "represent": 1694,
      "relig": 1695,
      "ach": 1696,
      "vac": 1697,
      "access": 1698,
      "fri": 1699,
      "understanding": 1700,
      "analysis": 1701,
      "number": 1702,
      "end": 1703,
      "##ands": 1704,
      "check": 1705,
      "identify": 1706,
      "others": 1707,
      "achie": 1708,
      "across": 1709,
      "specific": 1710,
      "into": 1711,
      "##atory": 1712,
      "##ally": 1713,
      "driver": 1714,
      "teams": 1715,
      "conduc": 1716,
      "public": 1717,
      "##ind": 1718,
      "##ends": 1719,
      "practices": 1720,
      "ll": 1721,
      "top": 1722,
      "sci": 1723,
      "glo": 1724,
      "licens": 1725,
      "##io": 1726,
      "recruit": 1727,
      "multiple": 1728,
      "mic": 1729,
      "##epend": 1730,
      "manner": 1731,
      "associates": 1732,
      "race": 1733,
      "401": 1734,
      "diploma": 1735,
      "innov": 1736,
      "bet": 1737,
      "compensation": 1738,
      "continu": 1739,
      "char": 1740,
      "##de": 1741,
      "uti": 1742,
      "get": 1743,
      "assess": 1744,
      "independ": 1745,
      "ann": 1746,
      "##ommod": 1747,
      "assistance": 1748,
      "growth": 1749,
      "receive": 1750,
      "leading": 1751,
      "##hic": 1752,
      "##ences": 1753,
      "##inc": 1754,
      "senior": 1755,
      "positive": 1756,
      "##assion": 1757,
      "vari": 1758,
      "##ze": 1759,
      "dif": 1760,
      "corpor": 1761,
      "accommod": 1762,
      "like": 1763,
      "##tp": 1764,
      "##abilities": 1765,
      "long": 1766,
      "##az": 1767,
      "elig": 1768,
      "##ize": 1769,
      "find": 1770,
      "only": 1771,
      "15": 1772,
      "webs": 1773,
      "micro": 1774,
      "fax": 1775,
      "applicable": 1776,
      "regular": 1777,
      "results": 1778,
      "maintains": 1779,
      "policy": 1780,
      "af": 1781,
      "non": 1782,
      "cult": 1783,
      "soc": 1784,
      "reco": 1785,
      "def": 1786,
      "zip": 1787,
      "communicate": 1788,
      "cred": 1789,
      "positions": 1790,
      "categ": 1791,
      "##uration": 1792,
      "form": 1793,
      "##ify": 1794,
      "drive": 1795,
      "test": 1796,
      "summary": 1797,
      "ther": 1798,
      "ent": 1799,
      "production": 1800,
      "aff": 1801,
      "18": 1802,
      "member": 1803,
      "view": 1804,
      "documents": 1805,
      "place": 1806,
      "basis": 1807,
      "fre": 1808,
      "##ote": 1809,
      "religion": 1810,
      "present": 1811,
      "sexual": 1812,
      "##bo": 1813,
      "partn": 1814,
      "requires": 1815,
      "building": 1816,
      "##ling": 1817,
      "##port": 1818,
      "http": 1819,
      "first": 1820,
      "##iqu": 1821,
      "##erc": 1822,
      "resol": 1823,
      "them": 1824,
      "close": 1825,
      "ques": 1826,
      "cour": 1827,
      "clic": 1828,
      "social": 1829,
      "reason": 1830,
      "obj": 1831,
      "consist": 1832,
      "##ock": 1833,
      "action": 1834,
      "leg": 1835,
      "monitor": 1836,
      "code": 1837,
      "accounting": 1838,
      "take": 1839,
      "valid": 1840,
      "##br": 1841,
      "global": 1842,
      "utili": 1843,
      "clear": 1844,
      "##encies": 1845,
      "address": 1846,
      "es": 1847,
      "various": 1848,
      "aud": 1849,
      "conditions": 1850,
      "hum": 1851,
      "rn": 1852,
      "teach": 1853,
      "locations": 1854,
      "today": 1855,
      "prev": 1856,
      "testing": 1857,
      "complex": 1858,
      "therap": 1859,
      "recomm": 1860,
      "san": 1861,
      "website": 1862,
      "##up": 1863,
      "documentation": 1864,
      "least": 1865,
      "practice": 1866,
      "##ak": 1867,
      "bon": 1868,
      "identity": 1869,
      "seeking": 1870,
      "committed": 1871,
      "specialist": 1872,
      "cover": 1873,
      "##ufact": 1874,
      "##own": 1875,
      "##side": 1876,
      "verbal": 1877,
      "di": 1878,
      "problems": 1879,
      "power": 1880,
      "differ": 1881,
      "manufact": 1882,
      "limited": 1883,
      "##soft": 1884,
      "performs": 1885,
      "##xt": 1886,
      "maintaining": 1887,
      "stor": 1888,
      "##action": 1889,
      "##go": 1890,
      "works": 1891,
      "during": 1892,
      "visit": 1893,
      "met": 1894,
      "insp": 1895,
      "##iving": 1896,
      "being": 1897,
      "microsoft": 1898,
      "dist": 1899,
      "primary": 1900,
      "##orn": 1901,
      "child": 1902,
      "ris": 1903,
      "##ging": 1904,
      "free": 1905,
      "start": 1906,
      "conc": 1907,
      "pres": 1908,
      "pac": 1909,
      "director": 1910,
      "pot": 1911,
      "##ph": 1912,
      "request": 1913,
      "##ted": 1914,
      "##sition": 1915,
      "companies": 1916,
      "deter": 1917,
      "friend": 1918,
      "invent": 1919,
      "202": 1920,
      "human": 1921,
      "ret": 1922,
      "interest": 1923,
      "##rug": 1924,
      "##ights": 1925,
      "##reen": 1926,
      "cash": 1927,
      "25": 1928,
      "change": 1929,
      "keep": 1930,
      "ide": 1931,
      "##co": 1932,
      "100": 1933,
      "personnel": 1934,
      "##icient": 1935,
      "##ese": 1936,
      "decision": 1937,
      "tele": 1938,
      "active": 1939,
      "vehic": 1940,
      "variety": 1941,
      "drug": 1942,
      "##thod": 1943,
      "mission": 1944,
      "materials": 1945,
      "auth": 1946,
      "staffing": 1947,
      "administrative": 1948,
      "##oint": 1949,
      "bachelor": 1950,
      "potential": 1951,
      "recommend": 1952,
      "term": 1953,
      "conn": 1954,
      "college": 1955,
      "##we": 1956,
      "ago": 1957,
      "timely": 1958,
      "share": 1959,
      "pass": 1960,
      "problem": 1961,
      "##ale": 1962,
      "##ght": 1963,
      "leader": 1964,
      "repair": 1965,
      "method": 1966,
      "bonus": 1967,
      "facility": 1968,
      "cost": 1969,
      "north": 1970,
      "self": 1971,
      "##lling": 1972,
      "talent": 1973,
      "suppli": 1974,
      "profic": 1975,
      "technolog": 1976,
      "inst": 1977,
      "click": 1978,
      "motiv": 1979,
      "##force": 1980,
      "university": 1981,
      "reporting": 1982,
      "duration": 1983,
      "regulations": 1984,
      "poss": 1985,
      "##fied": 1986,
      "enc": 1987,
      "these": 1988,
      "achieve": 1989,
      "bec": 1990,
      "includes": 1991,
      "passion": 1992,
      "13": 1993,
      "right": 1994,
      "match": 1995,
      "autom": 1996,
      "priv": 1997,
      "##elines": 1998,
      "##edic": 1999,
      "##code": 2000,
      "offers": 2001,
      "##ests": 2002,
      "should": 2003,
      "##aur": 2004,
      "ear": 2005,
      "execu": 2006,
      "##isting": 2007,
      "##lev": 2008,
      "registered": 2009,
      "culture": 2010,
      "##reh": 2011,
      "extern": 2012,
      "star": 2013,
      "category": 2014,
      "region": 2015,
      "truc": 2016,
      "##ention": 2017,
      "restaur": 2018,
      "highly": 2019,
      "inventory": 2020,
      "transport": 2021,
      "##gin": 2022,
      "learning": 2023,
      "consult": 2024,
      "reviews": 2025,
      "medic": 2026,
      "##loc": 2027,
      "recogn": 2028,
      "lift": 2029,
      "operating": 2030,
      "supervisor": 2031,
      "gover": 2032,
      "commit": 2033,
      "##kes": 2034,
      "ref": 2035,
      "unit": 2036,
      "serve": 2037,
      "##ection": 2038,
      "posting": 2039,
      "developing": 2040,
      "students": 2041,
      "compreh": 2042,
      "##bur": 2043,
      "##ired": 2044,
      "hr": 2045,
      "##atives": 2046,
      "##ses": 2047,
      "##xim": 2048,
      "holid": 2049,
      "##sp": 2050,
      "construc": 2051,
      "##cont": 2052,
      "zipcode": 2053,
      "treat": 2054,
      "author": 2055,
      "##ases": 2056,
      "train": 2057,
      "web": 2058,
      "cop": 2059,
      "pharm": 2060,
      "acce": 2061,
      "upd": 2062,
      "wal": 2063,
      "want": 2064,
      "making": 2065,
      "##anced": 2066,
      "range": 2067,
      "##pm": 2068,
      "package": 2069,
      "hire": 2070,
      "peri": 2071,
      "na": 2072,
      "period": 2073,
      "##ons": 2074,
      "driving": 2075,
      "quick": 2076,
      "gener": 2077,
      "agency": 2078,
      "##bu": 2079,
      "##ang": 2080,
      "possess": 2081,
      "bank": 2082,
      "organizational": 2083,
      "assists": 2084,
      "##man": 2085,
      "functional": 2086,
      "##ibility": 2087,
      "subj": 2088,
      "##ster": 2089,
      "##ounds": 2090,
      "##ix": 2091,
      "technician": 2092,
      "accounts": 2093,
      "submit": 2094,
      "those": 2095,
      "##iverse": 2096,
      "imm": 2097,
      "external": 2098,
      "act": 2099,
      "##land": 2100,
      "spe": 2101,
      "oriented": 2102,
      "##contract": 2103,
      "satis": 2104,
      "demonstrated": 2105,
      "managers": 2106,
      "orders": 2107,
      "##ater": 2108,
      "save": 2109,
      "excel": 2110,
      "diverse": 2111,
      "labor": 2112,
      "##tise": 2113,
      "throughout": 2114,
      "contrib": 2115,
      "resp": 2116,
      "efficient": 2117,
      "##ric": 2118,
      "industri": 2119,
      "name": 2120,
      "govern": 2121,
      "value": 2122,
      "been": 2123,
      "##incip": 2124,
      "40": 2125,
      "merchandise": 2126,
      "arch": 2127,
      "##ercial": 2128,
      "princip": 2129,
      "records": 2130,
      "setting": 2131,
      "beh": 2132,
      "model": 2133,
      "levels": 2134,
      "reasonable": 2135,
      "##udge": 2136,
      "temp": 2137,
      "coun": 2138,
      "ed": 2139,
      "##itiz": 2140,
      "performing": 2141,
      "commercial": 2142,
      "subject": 2143,
      "hard": 2144,
      "questions": 2145,
      "hear": 2146,
      "##tire": 2147,
      "supervision": 2148,
      "standard": 2149,
      "representative": 2150,
      "real": 2151,
      "##ery": 2152,
      "managing": 2153,
      "##ral": 2154,
      "previous": 2155,
      "##ille": 2156,
      "partner": 2157,
      "consideration": 2158,
      "interview": 2159,
      "risk": 2160,
      "distrib": 2161,
      "16": 2162,
      "##allen": 2163,
      "corporate": 2164,
      "##ier": 2165,
      "14": 2166,
      "credit": 2167,
      "line": 2168,
      "professionals": 2169,
      "##hol": 2170,
      "##eo": 2171,
      "room": 2172,
      "guidelines": 2173,
      "after": 2174,
      "hot": 2175,
      "ensuring": 2176,
      "manufacturing": 2177,
      "ensures": 2178,
      "##ptional": 2179,
      "experienc": 2180,
      "##ict": 2181,
      "attend": 2182,
      "##com": 2183,
      "usa": 2184,
      "implementation": 2185,
      "challen": 2186,
      "established": 2187,
      "##yn": 2188,
      "critical": 2189,
      "vol": 2190,
      "administration": 2191,
      "two": 2192,
      "bro": 2193,
      "##less": 2194,
      "months": 2195,
      "##contractor": 2196,
      "comprehensive": 2197,
      "meetings": 2198,
      "currently": 2199,
      "##ectives": 2200,
      "##be": 2201,
      "provided": 2202,
      "##echan": 2203,
      "operational": 2204,
      "advanced": 2205,
      "##aging": 2206,
      "card": 2207,
      "##ville": 2208,
      "applying": 2209,
      "partners": 2210,
      "##ns": 2211,
      "finance": 2212,
      "accordance": 2213,
      "drivers": 2214,
      "construction": 2215,
      "camp": 2216,
      "sim": 2217,
      "##asion": 2218,
      "naics": 2219,
      "analyst": 2220,
      "entry": 2221,
      "##sh": 2222,
      "##irm": 2223,
      "budge": 2224,
      "values": 2225,
      "install": 2226,
      "relev": 2227,
      "word": 2228,
      "restaurant": 2229,
      "##uests": 2230,
      "archit": 2231,
      "guests": 2232,
      "##arg": 2233,
      "##ition": 2234,
      "fein": 2235,
      "fedcontractor": 2236,
      "willing": 2237,
      "abilities": 2238,
      "##icians": 2239,
      "mach": 2240,
      "adh": 2241,
      "participate": 2242,
      "growing": 2243,
      "stock": 2244,
      "implement": 2245,
      "##anch": 2246,
      "america": 2247,
      "mechan": 2248,
      "veterans": 2249,
      "occasion": 2250,
      "frequ": 2251,
      "disabilities": 2252,
      "agree": 2253,
      "facilities": 2254,
      "paced": 2255,
      "##ersonal": 2256,
      "relevant": 2257,
      "##iles": 2258,
      "reach": 2259,
      "technologies": 2260,
      "found": 2261,
      "communications": 2262,
      "##ove": 2263,
      "bl": 2264,
      "##ives": 2265,
      "emerg": 2266,
      "##ination": 2267,
      "##ho": 2268,
      "interpersonal": 2269,
      "copy": 2270,
      "brand": 2271,
      "experienced": 2272,
      "processing": 2273,
      "fut": 2274,
      "select": 2275,
      "##load": 2276,
      "dedic": 2277,
      "prepare": 2278,
      "respond": 2279,
      "face": 2280,
      "promo": 2281,
      "bill": 2282,
      "reli": 2283,
      "move": 2284,
      "##use": 2285,
      "##ilder": 2286,
      "screen": 2287,
      "##ond": 2288,
      "grad": 2289,
      "cr": 2290,
      "##ret": 2291,
      "would": 2292,
      "expertise": 2293,
      "pounds": 2294,
      "track": 2295,
      "diversity": 2296,
      "tre": 2297,
      "invol": 2298,
      "corre": 2299,
      "accurate": 2300,
      "overview": 2301,
      "confid": 2302,
      "responsibility": 2303,
      "ha": 2304,
      "utiliz": 2305,
      "future": 2306,
      "science": 2307,
      "vend": 2308,
      "transportation": 2309,
      "ware": 2310,
      "##house": 2311,
      "##ization": 2312,
      "##ices": 2313,
      "##sible": 2314,
      "##ically": 2315,
      "completion": 2316,
      "instructions": 2317,
      "bal": 2318,
      "##ising": 2319,
      "regarding": 2320,
      "##riting": 2321,
      "flo": 2322,
      "datab": 2323,
      "guest": 2324,
      "commitment": 2325,
      "item": 2326,
      "annual": 2327,
      "##ude": 2328,
      "advance": 2329,
      "solving": 2330,
      "21": 2331,
      "##pa": 2332,
      "accred": 2333,
      "link": 2334,
      "obtain": 2335,
      "expect": 2336,
      "##ined": 2337,
      "depend": 2338,
      "air": 2339,
      "##ature": 2340,
      "##acts": 2341,
      "encour": 2342,
      "improvement": 2343,
      "exceptional": 2344,
      "port": 2345,
      "aw": 2346,
      "exc": 2347,
      "successfully": 2348,
      "holidays": 2349,
      "student": 2350,
      "house": 2351,
      "weekends": 2352,
      "200": 2353,
      "eligible": 2354,
      "strategic": 2355,
      "events": 2356,
      "according": 2357,
      "coach": 2358,
      "##ween": 2359,
      "##ture": 2360,
      "ap": 2361,
      "legal": 2362,
      "between": 2363,
      "lang": 2364,
      "##he": 2365,
      "architect": 2366,
      "objectives": 2367,
      "##tig": 2368,
      "directly": 2369,
      "##builder": 2370,
      "specified": 2371,
      "tx": 2372,
      "##pping": 2373,
      "changes": 2374,
      "asp": 2375,
      "careerbuilder": 2376,
      "##ifts": 2377,
      "independently": 2378,
      "below": 2379,
      "immedi": 2380,
      "compet": 2381,
      "dev": 2382,
      "comb": 2383,
      "weekly": 2384,
      "enjo": 2385,
      "accommodation": 2386,
      "engage": 2387,
      "##place": 2388,
      "##acter": 2389,
      "##actions": 2390,
      "inves": 2391,
      "supporting": 2392,
      "langu": 2393,
      "wa": 2394,
      "function": 2395,
      "considered": 2396,
      "document": 2397,
      "##room": 2398,
      "government": 2399,
      "conduct": 2400,
      "24": 2401,
      "certified": 2402,
      "times": 2403,
      "##ural": 2404,
      "sour": 2405,
      "dig": 2406,
      "laws": 2407,
      "larg": 2408,
      "sou": 2409,
      "character": 2410,
      "ms": 2411,
      "careers": 2412,
      "there": 2413,
      "operate": 2414,
      "div": 2415,
      "upon": 2416,
      "purp": 2417,
      "vehicle": 2418,
      "requests": 2419,
      "##iforn": 2420,
      "accept": 2421,
      "behav": 2422,
      "direction": 2423,
      "around": 2424,
      "communities": 2425,
      "californ": 2426,
      "ged": 2427,
      "way": 2428,
      "impact": 2429,
      "asse": 2430,
      "ef": 2431,
      "tax": 2432,
      "large": 2433,
      "##isition": 2434,
      "fill": 2435,
      "california": 2436,
      "##titude": 2437,
      "##fort": 2438,
      "approach": 2439,
      "international": 2440,
      "friendly": 2441,
      "my": 2442,
      "##roll": 2443,
      "items": 2444,
      "demonstrate": 2445,
      "ful": 2446,
      "##umb": 2447,
      "##enting": 2448,
      "provider": 2449,
      "attention": 2450,
      "located": 2451,
      "##na": 2452,
      "continuous": 2453,
      "##ilitary": 2454,
      "above": 2455,
      "proven": 2456,
      "calls": 2457,
      "17": 2458,
      "executive": 2459,
      "military": 2460,
      "##ification": 2461,
      "plat": 2462,
      "##ily": 2463,
      "surg": 2464,
      "maj": 2465,
      "even": 2466,
      "vir": 2467,
      "enterpr": 2468,
      "##wide": 2469,
      "send": 2470,
      "hands": 2471,
      "ans": 2472,
      "nation": 2473,
      "cross": 2474,
      "just": 2475,
      "innovative": 2476,
      "appli": 2477,
      "treatment": 2478,
      "frid": 2479,
      "play": 2480,
      "inclu": 2481,
      "physician": 2482,
      "investig": 2483,
      "mob": 2484,
      "strategy": 2485,
      "load": 2486,
      "enh": 2487,
      "warehouse": 2488,
      "platform": 2489,
      "hist": 2490,
      "##crimin": 2491,
      "##word": 2492,
      "short": 2493,
      "does": 2494,
      "##ular": 2495,
      "truck": 2496,
      "hotel": 2497,
      "electron": 2498,
      "creating": 2499,
      "existing": 2500,
      "##pts": 2501,
      "monday": 2502,
      "outside": 2503,
      "##lie": 2504,
      "supplies": 2505,
      "division": 2506,
      "major": 2507,
      "##active": 2508,
      "techniqu": 2509,
      "bi": 2510,
      "let": 2511,
      "##lu": 2512,
      "##ances": 2513,
      "##yc": 2514,
      "##eng": 2515,
      "eth": 2516,
      "import": 2517,
      "cleaning": 2518,
      "satisf": 2519,
      "friday": 2520,
      "##fore": 2521,
      "instit": 2522,
      "gradu": 2523,
      "##eness": 2524,
      "writing": 2525,
      "fit": 2526,
      "digital": 2527,
      "##ren": 2528,
      "##ili": 2529,
      "belie": 2530,
      "strategies": 2531,
      "purch": 2532,
      "dedicated": 2533,
      "addition": 2534,
      "shifts": 2535,
      "coordinate": 2536,
      "property": 2537,
      "largest": 2538,
      "##utes": 2539,
      "meas": 2540,
      "york": 2541,
      "motivated": 2542,
      "remote": 2543,
      "media": 2544,
      "english": 2545,
      "initiatives": 2546,
      "handling": 2547,
      "consistent": 2548,
      "##ories": 2549,
      "##sting": 2550,
      "feed": 2551,
      "cd": 2552,
      "##ables": 2553,
      "diag": 2554,
      "##ulting": 2555,
      "content": 2556,
      "case": 2557,
      "integrity": 2558,
      "##ha": 2559,
      "again": 2560,
      "focused": 2561,
      "made": 2562,
      "energ": 2563,
      "core": 2564,
      "incre": 2565,
      "trou": 2566,
      "sele": 2567,
      "analytical": 2568,
      "decisions": 2569,
      "##nds": 2570,
      "##ators": 2571,
      "recruiting": 2572,
      "occup": 2573,
      "tempor": 2574,
      "profit": 2575,
      "los": 2576,
      "consum": 2577,
      "##istics": 2578,
      "user": 2579,
      "##bles": 2580,
      "overs": 2581,
      "facilit": 2582,
      "##aces": 2583,
      "lab": 2584,
      "maxim": 2585,
      "techniques": 2586,
      "situ": 2587,
      "wel": 2588,
      "red": 2589,
      "many": 2590,
      "electrical": 2591,
      "comply": 2592,
      "pm": 2593,
      "discrimin": 2594,
      "wide": 2595,
      "verify": 2596,
      "fort": 2597,
      "terms": 2598,
      "cler": 2599,
      "next": 2600,
      "handle": 2601,
      "oral": 2602,
      "manages": 2603,
      "##fication": 2604,
      "enjoy": 2605,
      "distr": 2606,
      "##uch": 2607,
      "##verage": 2608,
      "parts": 2609,
      "##iter": 2610,
      "used": 2611,
      "three": 2612,
      "fo": 2613,
      "show": 2614,
      "don": 2615,
      "schedules": 2616,
      "invest": 2617,
      "applicant": 2618,
      "##aim": 2619,
      "##tivity": 2620,
      "families": 2621,
      "##ark": 2622,
      "regulatory": 2623,
      "assignments": 2624,
      "ps": 2625,
      "enterprise": 2626,
      "prosp": 2627,
      "head": 2628,
      "dead": 2629,
      "##ilar": 2630,
      "scheduling": 2631,
      "##uty": 2632,
      "reim": 2633,
      "temporary": 2634,
      "operation": 2635,
      "cho": 2636,
      "##sel": 2637,
      "excellence": 2638,
      "seek": 2639,
      "resource": 2640,
      "selling": 2641,
      "reser": 2642,
      "##ough": 2643,
      "similar": 2644,
      "citiz": 2645,
      "firm": 2646,
      "adver": 2647,
      "##50": 2648,
      "language": 2649,
      "better": 2650,
      "##10": 2651,
      "retire": 2652,
      "wash": 2653,
      "regional": 2654,
      "##ended": 2655,
      "interested": 2656,
      "emergency": 2657,
      "energy": 2658,
      "##sement": 2659,
      "reimbur": 2660,
      "monitoring": 2661,
      "https": 2662,
      "##une": 2663,
      "assisting": 2664,
      "##20": 2665,
      "##ancy": 2666,
      "oh": 2667,
      "affirm": 2668,
      "workplace": 2669,
      "departments": 2670,
      "tex": 2671,
      "gene": 2672,
      "commission": 2673,
      "allow": 2674,
      "##bed": 2675,
      "methods": 2676,
      "small": 2677,
      "##back": 2678,
      "preparation": 2679,
      "develops": 2680,
      "##venue": 2681,
      "overall": 2682,
      "affirmative": 2683,
      "retirement": 2684,
      "agencies": 2685,
      "##ather": 2686,
      "rate": 2687,
      "desired": 2688,
      "appoint": 2689,
      "monthly": 2690,
      "base": 2691,
      "##mpt": 2692,
      "creative": 2693,
      "accurately": 2694,
      "carry": 2695,
      "##iar": 2696,
      "##ington": 2697,
      "supply": 2698,
      "ii": 2699,
      "wind": 2700,
      "er": 2701,
      "why": 2702,
      "execution": 2703,
      "##assi": 2704,
      "mental": 2705,
      "mill": 2706,
      "delivering": 2707,
      "country": 2708,
      "residents": 2709,
      "driven": 2710,
      "##adem": 2711,
      "##time": 2712,
      "##blesho": 2713,
      "bring": 2714,
      "##res": 2715,
      "assessment": 2716,
      "consulting": 2717,
      "accredited": 2718,
      "##lement": 2719,
      "helping": 2720,
      "troublesho": 2721,
      "options": 2722,
      "children": 2723,
      "employers": 2724,
      "uniqu": 2725,
      "##ps": 2726,
      "coordinator": 2727,
      "before": 2728,
      "##ston": 2729,
      "concer": 2730,
      "rou": 2731,
      "optim": 2732,
      "ur": 2733,
      "stores": 2734,
      "##minal": 2735,
      "ge": 2736,
      "##ub": 2737,
      "front": 2738,
      "possible": 2739,
      "bre": 2740,
      "supports": 2741,
      "60": 2742,
      "district": 2743,
      "##thing": 2744,
      "##mine": 2745,
      "eeo": 2746,
      "database": 2747,
      "##ex": 2748,
      "22": 2749,
      "purpose": 2750,
      "mis": 2751,
      "board": 2752,
      "##iency": 2753,
      "conce": 2754,
      "##location": 2755,
      "401k": 2756,
      "coverage": 2757,
      "adher": 2758,
      "displ": 2759,
      "##inary": 2760,
      "note": 2761,
      "lbs": 2762,
      "##ters": 2763,
      "2011": 2764,
      "unique": 2765,
      "south": 2766,
      "shar": 2767,
      "specialty": 2768,
      "determine": 2769,
      "run": 2770,
      "floor": 2771,
      "##wards": 2772,
      "##ynam": 2773,
      "audit": 2774,
      "##nding": 2775,
      "satisfaction": 2776,
      "adj": 2777,
      "determin": 2778,
      "behavior": 2779,
      "promote": 2780,
      "math": 2781,
      "##iling": 2782,
      "budget": 2783,
      "advis": 2784,
      "expectations": 2785,
      "##ength": 2786,
      "direc": 2787,
      "proficiency": 2788,
      "return": 2789,
      "respect": 2790,
      "mechanical": 2791,
      "##ways": 2792,
      "via": 2793,
      "demonstrates": 2794,
      "##aged": 2795,
      "familiar": 2796,
      "sho": 2797,
      "mid": 2798,
      "closing": 2799,
      "expl": 2800,
      "va": 2801,
      "ny": 2802,
      "eligibility": 2803,
      "phot": 2804,
      "branch": 2805,
      "lt": 2806,
      "ec": 2807,
      "licensed": 2808,
      "attitude": 2809,
      "##ql": 2810,
      "educational": 2811,
      "##ush": 2812,
      "diagn": 2813,
      "deal": 2814,
      "participates": 2815,
      "mobile": 2816,
      "##atch": 2817,
      "county": 2818,
      "##oud": 2819,
      "##itch": 2820,
      "dynam": 2821,
      "important": 2822,
      "im": 2823,
      "500": 2824,
      "independent": 2825,
      "vacation": 2826,
      "amaz": 2827,
      "lives": 2828,
      "condition": 2829,
      "dra": 2830,
      "reimbursement": 2831,
      "ment": 2832,
      "accommodations": 2833,
      "vi": 2834,
      "expos": 2835,
      "analyze": 2836,
      "win": 2837,
      "trust": 2838,
      "##grap": 2839,
      "become": 2840,
      "texas": 2841,
      "pharmacy": 2842,
      "workforce": 2843,
      "bachelors": 2844,
      "therapy": 2845,
      "feedback": 2846,
      "completed": 2847,
      "ideal": 2848,
      "collaborative": 2849,
      "##ining": 2850,
      "##me": 2851,
      "##ince": 2852,
      "##adi": 2853,
      "tri": 2854,
      "ce": 2855,
      "perman": 2856,
      "confidential": 2857,
      "##30": 2858,
      "down": 2859,
      "exam": 2860,
      "come": 2861,
      "point": 2862,
      "benefit": 2863,
      "prop": 2864,
      "##rive": 2865,
      "targe": 2866,
      "##ope": 2867,
      "demands": 2868,
      "situations": 2869,
      "struc": 2870,
      "live": 2871,
      "marital": 2872,
      "rights": 2873,
      "##right": 2874,
      "proficient": 2875,
      "##sa": 2876,
      "##ler": 2877,
      "industries": 2878,
      "answer": 2879,
      "##omp": 2880,
      "distribution": 2881,
      "love": 2882,
      "enhance": 2883,
      "exceed": 2884,
      "academ": 2885,
      "##60": 2886,
      "permanent": 2887,
      "programm": 2888,
      "si": 2889,
      "less": 2890,
      "reliable": 2891,
      "##book": 2892,
      "activity": 2893,
      "organizations": 2894,
      "sw": 2895,
      "2017": 2896,
      "claim": 2897,
      "openings": 2898,
      "registr": 2899,
      "##standing": 2900,
      "season": 2901,
      "##oles": 2902,
      "page": 2903,
      "##ules": 2904,
      "##oing": 2905,
      "window": 2906,
      "along": 2907,
      "##ana": 2908,
      "print": 2909,
      "##og": 2910,
      "revenue": 2911,
      "resolve": 2912,
      "then": 2913,
      "automo": 2914,
      "serving": 2915,
      "teaching": 2916,
      "innovation": 2917,
      "##11": 2918,
      "##alf": 2919,
      "american": 2920,
      "sn": 2921,
      "recruitment": 2922,
      "ill": 2923,
      "groups": 2924,
      "bar": 2925,
      "accuracy": 2926,
      "enable": 2927,
      "ong": 2928,
      "##gether": 2929,
      "teleph": 2930,
      "minor": 2931,
      "closely": 2932,
      "ongoing": 2933,
      "task": 2934,
      "citizens": 2935,
      "begin": 2936,
      "occasionally": 2937,
      "lifting": 2938,
      "availability": 2939,
      "##point": 2940,
      "low": 2941,
      "together": 2942,
      "standing": 2943,
      "living": 2944,
      "workers": 2945,
      "different": 2946,
      "##isc": 2947,
      "path": 2948,
      "##istic": 2949,
      "##ost": 2950,
      "estim": 2951,
      "guidance": 2952,
      "outstanding": 2953,
      "##fol": 2954,
      "##au": 2955,
      "leads": 2956,
      "##ca": 2957,
      "##gment": 2958,
      "##forts": 2959,
      "inqu": 2960,
      "acqu": 2961,
      "counsel": 2962,
      "criminal": 2963,
      "principles": 2964,
      "reference": 2965,
      "ready": 2966,
      "##goti": 2967,
      "comfort": 2968,
      "reward": 2969,
      "##to": 2970,
      "jav": 2971,
      "negoti": 2972,
      "##ne": 2973,
      "hourly": 2974,
      "##ycle": 2975,
      "stake": 2976,
      "desk": 2977,
      "##jobs": 2978,
      "merchandising": 2979,
      "listed": 2980,
      "master": 2981,
      "efforts": 2982,
      "proud": 2983,
      "##izing": 2984,
      "performed": 2985,
      "road": 2986,
      "##ych": 2987,
      "flor": 2988,
      "##40": 2989,
      "fair": 2990,
      "environmental": 2991,
      "##lines": 2992,
      "genetic": 2993,
      "##par": 2994,
      "feel": 2995,
      "therapist": 2996,
      "##eel": 2997,
      "quickly": 2998,
      "##ef": 2999,
      "step": 3000,
      "earn": 3001,
      "##ually": 3002,
      "history": 3003,
      "##asing": 3004,
      "west": 3005,
      "certifications": 3006,
      "tu": 3007,
      "prov": 3008,
      "##mb": 3009,
      "stakehol": 3010,
      "experiences": 3011,
      "expert": 3012,
      "2012": 3013,
      "cloud": 3014,
      "##tr": 3015,
      "server": 3016,
      "##ield": 3017,
      "##bsp": 3018,
      "##of": 3019,
      "privacy": 3020,
      "aspects": 3021,
      "leaders": 3022,
      "was": 3023,
      "##tine": 3024,
      "graduate": 3025,
      "opening": 3026,
      "associated": 3027,
      "##come": 3028,
      "23": 3029,
      "##tes": 3030,
      "immediate": 3031,
      "presentation": 3032,
      "##umes": 3033,
      "developer": 3034,
      "##eed": 3035,
      "compon": 3036,
      "duty": 3037,
      "cod": 3038,
      "requisition": 3039,
      "makes": 3040,
      "organized": 3041,
      "course": 3042,
      "prem": 3043,
      "##ression": 3044,
      "skilled": 3045,
      "combination": 3046,
      "providers": 3047,
      "classi": 3048,
      "psych": 3049,
      "spr": 3050,
      "supervisory": 3051,
      "broad": 3052,
      "expected": 3053,
      "highest": 3054,
      "checks": 3055,
      "referral": 3056,
      "specifications": 3057,
      "believe": 3058,
      "against": 3059,
      "reh": 3060,
      "centers": 3061,
      "solution": 3062,
      "give": 3063,
      "##rics": 3064,
      "##21": 3065,
      "##la": 3066,
      "mi": 3067,
      "##ida": 3068,
      "recommendations": 3069,
      "statement": 3070,
      "coo": 3071,
      "near": 3072,
      "##acking": 3073,
      "electronic": 3074,
      "##keep": 3075,
      "chem": 3076,
      "##son": 3077,
      "proactive": 3078,
      "##read": 3079,
      "ten": 3080,
      "##itation": 3081,
      "insi": 3082,
      "event": 3083,
      "interpret": 3084,
      "infra": 3085,
      "hy": 3086,
      "coordination": 3087,
      "2015": 3088,
      "periods": 3089,
      "contr": 3090,
      "recognized": 3091,
      "clim": 3092,
      "priorities": 3093,
      "infrastruc": 3094,
      "##ina": 3095,
      "##ada": 3096,
      "##ecting": 3097,
      "##88": 3098,
      "##ange": 3099,
      "##ger": 3100,
      "evaluation": 3101,
      "hospitality": 3102,
      "collaboration": 3103,
      "progress": 3104,
      "walk": 3105,
      "##ison": 3106,
      "##ections": 3107,
      "campus": 3108,
      "terr": 3109,
      "vendors": 3110,
      "press": 3111,
      "##arter": 3112,
      "consultant": 3113,
      "##uce": 3114,
      "banking": 3115,
      "specialized": 3116,
      "write": 3117,
      "consumer": 3118,
      "trends": 3119,
      "types": 3120,
      "common": 3121,
      "cdl": 3122,
      "##ane": 3123,
      "controls": 3124,
      "execute": 3125,
      "nc": 3126,
      "ideas": 3127,
      "sql": 3128,
      "collec": 3129,
      "rehab": 3130,
      "tal": 3131,
      "integration": 3132,
      "push": 3133,
      "infrastructure": 3134,
      "il": 3135,
      "private": 3136,
      "physicians": 3137,
      "sty": 3138,
      "##ley": 3139,
      "oversee": 3140,
      "changing": 3141,
      "receiv": 3142,
      "arr": 3143,
      "##orts": 3144,
      "yes": 3145,
      "##erv": 3146,
      "prepares": 3147,
      "##ford": 3148,
      "suite": 3149,
      "##reet": 3150,
      "##70": 3151,
      "always": 3152,
      "llc": 3153,
      "##99": 3154,
      "manual": 3155,
      "moder": 3156,
      "serves": 3157,
      "eas": 3158,
      "million": 3159,
      "35": 3160,
      "##onom": 3161,
      "balance": 3162,
      "detailed": 3163,
      "automotive": 3164,
      "florida": 3165,
      "lin": 3166,
      "2016": 3167,
      "75": 3168,
      "##hib": 3169,
      "ra": 3170,
      "industrial": 3171,
      "disp": 3172,
      "rules": 3173,
      "none": 3174,
      "very": 3175,
      "frequently": 3176,
      "##comes": 3177,
      "##omes": 3178,
      "portfol": 3179,
      "collaborate": 3180,
      "paper": 3181,
      "inquir": 3182,
      "mentor": 3183,
      "fact": 3184,
      "telephone": 3185,
      "adap": 3186,
      "recruiter": 3187,
      "visual": 3188,
      "##avy": 3189,
      "26": 3190,
      "directed": 3191,
      "registration": 3192,
      "##oting": 3193,
      "adjust": 3194,
      "##isco": 3195,
      "exciting": 3196,
      "requested": 3197,
      "##25": 3198,
      "actively": 3199,
      "rot": 3200,
      "dynamic": 3201,
      "28": 3202,
      "##ops": 3203,
      "advancement": 3204,
      "correct": 3205,
      "spend": 3206,
      "spons": 3207,
      "fur": 3208,
      "phil": 3209,
      "span": 3210,
      "difference": 3211,
      "routine": 3212,
      "info": 3213,
      "partnership": 3214,
      "##rop": 3215,
      "##tal": 3216,
      "##aries": 3217,
      "requirement": 3218,
      "sell": 3219,
      "volun": 3220,
      "takes": 3221,
      "deadlines": 3222,
      "passionate": 3223,
      "aer": 3224,
      "##ship": 3225,
      "washington": 3226,
      "transactions": 3227,
      "gov": 3228,
      "nbsp": 3229,
      "evaluate": 3230,
      "##here": 3231,
      "her": 3232,
      "transform": 3233,
      "pen": 3234,
      "offices": 3235,
      "screening": 3236,
      "past": 3237,
      "relocation": 3238,
      "saving": 3239,
      "##ries": 3240,
      "sites": 3241,
      "scope": 3242,
      "##ium": 3243,
      "##ked": 3244,
      "corporation": 3245,
      "nurses": 3246,
      "laboratory": 3247,
      "architecture": 3248,
      "think": 3249,
      "medicine": 3250,
      "internet": 3251,
      "2013": 3252,
      "##ably": 3253,
      "consistently": 3254,
      "payroll": 3255,
      "hardware": 3256,
      "##vention": 3257,
      "stakeholders": 3258,
      "clearance": 3259,
      "protection": 3260,
      "further": 3261,
      "##ema": 3262,
      "##pati": 3263,
      "bs": 3264,
      "offering": 3265,
      "higher": 3266,
      "##ado": 3267,
      "align": 3268,
      "grade": 3269,
      "##iver": 3270,
      "announ": 3271,
      "coaching": 3272,
      "analyz": 3273,
      "##ma": 3274,
      "mor": 3275,
      "jud": 3276,
      "last": 3277,
      "inclusive": 3278,
      "##ulation": 3279,
      "##acting": 3280,
      "facebook": 3281,
      "2019": 3282,
      "mess": 3283,
      "water": 3284,
      "estate": 3285,
      "assignment": 3286,
      "##atures": 3287,
      "were": 3288,
      "scheduled": 3289,
      "fortune": 3290,
      "big": 3291,
      "simp": 3292,
      "prescri": 3293,
      "accomp": 3294,
      "repl": 3295,
      "forward": 3296,
      "effici": 3297,
      "##ott": 3298,
      "goal": 3299,
      "##ino": 3300,
      "tuition": 3301,
      "##abled": 3302,
      "##33": 3303,
      "machine": 3304,
      "cra": 3305,
      "applied": 3306,
      "resolution": 3307,
      "haz": 3308,
      "##ause": 3309,
      "five": 3310,
      "leave": 3311,
      "##44": 3312,
      "continue": 3313,
      "amb": 3314,
      "##oll": 3315,
      "auto": 3316,
      "01": 3317,
      "##itize": 3318,
      "covid": 3319,
      "##atric": 3320,
      "2010": 3321,
      "80": 3322,
      "##tor": 3323,
      "portfolio": 3324,
      "##ker": 3325,
      "##ident": 3326,
      "dr": 3327,
      "because": 3328,
      "stay": 3329,
      "moving": 3330,
      "selection": 3331,
      "##ceed": 3332,
      "flexibility": 3333,
      "##80": 3334,
      "31": 3335,
      "total": 3336,
      "27": 3337,
      "extensive": 3338,
      "hold": 3339,
      "tracking": 3340,
      "expression": 3341,
      "##ains": 3342,
      "analytics": 3343,
      "profile": 3344,
      "90": 3345,
      "approved": 3346,
      "obs": 3347,
      "##65": 3348,
      "influ": 3349,
      "programming": 3350,
      "flow": 3351,
      "occupational": 3352,
      "loan": 3353,
      "##menting": 3354,
      "##anta": 3355,
      "businesses": 3356,
      "amp": 3357,
      "esc": 3358,
      "ga": 3359,
      "##icing": 3360,
      "##fill": 3361,
      "pop": 3362,
      "##ism": 3363,
      "territ": 3364,
      "##ulty": 3365,
      "never": 3366,
      "exe": 3367,
      "altern": 3368,
      "ct": 3369,
      "config": 3370,
      "##mission": 3371,
      "implementing": 3372,
      "matching": 3373,
      "weekend": 3374,
      "##keeping": 3375,
      "az": 3376,
      "windows": 3377,
      "regularly": 3378,
      "solid": 3379,
      "map": 3380,
      "aid": 3381,
      "academic": 3382,
      "since": 3383,
      "announce": 3384,
      "four": 3385,
      "##22": 3386,
      "deploy": 3387,
      "thin": 3388,
      "depos": 3389,
      "2018": 3390,
      "news": 3391,
      "challenges": 3392,
      "journ": 3393,
      "2022": 3394,
      "starting": 3395,
      "poster": 3396,
      "billing": 3397,
      "connect": 3398,
      "appear": 3399,
      "resident": 3400,
      "eo": 3401,
      "capabilities": 3402,
      "among": 3403,
      "fund": 3404,
      "photo": 3405,
      "##graph": 3406,
      "licensure": 3407,
      "propos": 3408,
      "installation": 3409,
      "har": 3410,
      "vehicles": 3411,
      "nature": 3412,
      "ste": 3413,
      "receiving": 3414,
      "sr": 3415,
      "##ocol": 3416,
      "ang": 3417,
      "utilizing": 3418,
      "due": 3419,
      "##66": 3420,
      "##patient": 3421,
      "citizenship": 3422,
      "coordinates": 3423,
      "md": 3424,
      "vary": 3425,
      "outcomes": 3426,
      "##ones": 3427,
      "attendance": 3428,
      "interact": 3429,
      "concepts": 3430,
      "ic": 3431,
      "##ounts": 3432,
      "transfer": 3433,
      "##ta": 3434,
      "preparing": 3435,
      "brands": 3436,
      "competencies": 3437,
      "##orough": 3438,
      "park": 3439,
      "qualify": 3440,
      "prioritize": 3441,
      "pal": 3442,
      "continuing": 3443,
      "means": 3444,
      "##90": 3445,
      "##45": 3446,
      "monitors": 3447,
      "supplement": 3448,
      "authorized": 3449,
      "mind": 3450,
      "six": 3451,
      "youll": 3452,
      "desire": 3453,
      "fulfill": 3454,
      "const": 3455,
      "##put": 3456,
      "solve": 3457,
      "whe": 3458,
      "defined": 3459,
      "identifying": 3460,
      "copyright": 3461,
      "##field": 3462,
      "accomplish": 3463,
      "units": 3464,
      "officer": 3465,
      "##oming": 3466,
      "password": 3467,
      "discount": 3468,
      "##ota": 3469,
      "sto": 3470,
      "vide": 3471,
      "someone": 3472,
      "properly": 3473,
      "logistics": 3474,
      "follows": 3475,
      "protocol": 3476,
      "diagnos": 3477,
      "look": 3478,
      "storage": 3479,
      "section": 3480,
      "discip": 3481,
      "schools": 3482,
      "plant": 3483,
      "##ams": 3484,
      "45": 3485,
      "##15": 3486,
      "inquiries": 3487,
      "vacc": 3488,
      "welcome": 3489,
      "2021": 3490,
      "aler": 3491,
      "heart": 3492,
      "reserved": 3493,
      "thinking": 3494,
      "constant": 3495,
      "teamwork": 3496,
      "##77": 3497,
      "valu": 3498,
      "contribute": 3499,
      "discipline": 3500,
      "##board": 3501,
      "##ousing": 3502,
      "2014": 3503,
      "virgin": 3504,
      "colleag": 3505,
      "superior": 3506,
      "offered": 3507,
      "2020": 3508,
      "##ml": 3509,
      "cut": 3510,
      "climb": 3511,
      "cook": 3512,
      "req": 3513,
      "response": 3514,
      "judgment": 3515,
      "##ades": 3516,
      "tra": 3517,
      "civ": 3518,
      "gl": 3519,
      "letter": 3520,
      "actions": 3521,
      "##do": 3522,
      "taking": 3523,
      "whether": 3524,
      "engagement": 3525,
      "arm": 3526,
      "utilize": 3527,
      "##leg": 3528,
      "efficiently": 3529,
      "concerns": 3530,
      "scienti": 3531,
      "assemb": 3532,
      "clinic": 3533,
      "pet": 3534,
      "intell": 3535,
      "troubleshooting": 3536,
      "hon": 3537,
      "fully": 3538,
      "##itals": 3539,
      "##way": 3540,
      "noti": 3541,
      "interf": 3542,
      "06": 3543,
      "preference": 3544,
      "owned": 3545,
      "disabled": 3546,
      "fire": 3547,
      "ok": 3548,
      "wellness": 3549,
      "markets": 3550,
      "components": 3551,
      "exposure": 3552,
      "mag": 3553,
      "surgical": 3554,
      "purchase": 3555,
      "repairs": 3556,
      "vendor": 3557,
      "##ises": 3558,
      "05": 3559,
      "shop": 3560,
      "investment": 3561,
      "assurance": 3562,
      "expand": 3563,
      "designated": 3564,
      "facilitate": 3565,
      "ground": 3566,
      "29": 3567,
      "question": 3568,
      "teacher": 3569,
      "pc": 3570,
      "##ites": 3571,
      "environments": 3572,
      "she": 3573,
      "rap": 3574,
      "files": 3575,
      "##respon": 3576,
      "willingness": 3577,
      "increase": 3578,
      "source": 3579,
      "wom": 3580,
      "recruiters": 3581,
      "sust": 3582,
      "##job": 3583,
      "kitch": 3584,
      "intellig": 3585,
      "##ured": 3586,
      "familiarity": 3587,
      "pricing": 3588,
      "mot": 3589,
      "ul": 3590,
      "announcement": 3591,
      "signific": 3592,
      "termin": 3593,
      "designed": 3594,
      "##23": 3595,
      "communicates": 3596,
      "##izes": 3597,
      "04": 3598,
      "discipl": 3599,
      "rout": 3600,
      "faculty": 3601,
      "approxim": 3602,
      "##ghts": 3603,
      "##acle": 3604,
      "initiative": 3605,
      "savings": 3606,
      "eoe": 3607,
      "subs": 3608,
      "force": 3609,
      "##fect": 3610,
      "thorough": 3611,
      "correc": 3612,
      "hospitals": 3613,
      "engineers": 3614,
      "##att": 3615,
      "amazon": 3616,
      "stoop": 3617,
      "speak": 3618,
      "pull": 3619,
      "productivity": 3620,
      "rapid": 3621,
      "##look": 3622,
      "nationwide": 3623,
      "contracts": 3624,
      "investigation": 3625,
      "##ask": 3626,
      "rewarding": 3627,
      "##til": 3628,
      "discus": 3629,
      "box": 3630,
      "heavy": 3631,
      "doing": 3632,
      "headqu": 3633,
      "uses": 3634,
      "provision": 3635,
      "chain": 3636,
      "virginia": 3637,
      "selected": 3638,
      "collection": 3639,
      "listen": 3640,
      "seasonal": 3641,
      "forms": 3642,
      "typically": 3643,
      "territory": 3644,
      "##usi": 3645,
      "adapt": 3646,
      "payment": 3647,
      "pedi": 3648,
      "##ower": 3649,
      "las": 3650,
      "perm": 3651,
      "frequent": 3652,
      "insights": 3653,
      "mc": 3654,
      "##val": 3655,
      "prospective": 3656,
      "operates": 3657,
      "discriminate": 3658,
      "ir": 3659,
      "presentations": 3660,
      "claims": 3661,
      "70": 3662,
      "##astic": 3663,
      "packages": 3664,
      "efficiency": 3665,
      "02": 3666,
      "##ape": 3667,
      "central": 3668,
      "enth": 3669,
      "update": 3670,
      "##list": 3671,
      "wire": 3672,
      "completing": 3673,
      "significant": 3674,
      "space": 3675,
      "capital": 3676,
      "enthusi": 3677,
      "comfortable": 3678,
      "08": 3679,
      "second": 3680,
      "appearance": 3681,
      "##stru": 3682,
      "display": 3683,
      "devices": 3684,
      "java": 3685,
      "nav": 3686,
      "##pro": 3687,
      "07": 3688,
      "extended": 3689,
      "night": 3690,
      "kitchen": 3691,
      "talented": 3692,
      "indeed": 3693,
      "03": 3694,
      "old": 3695,
      "##etary": 3696,
      "player": 3697,
      "volume": 3698,
      "chemical": 3699,
      "thir": 3700,
      "pd": 3701,
      "things": 3702,
      "##ension": 3703,
      "half": 3704,
      "keyword": 3705,
      "strength": 3706,
      "worldwide": 3707,
      "pat": 3708,
      "##ux": 3709,
      "roles": 3710,
      "award": 3711,
      "##cript": 3712,
      "users": 3713,
      "draw": 3714,
      "##ago": 3715,
      "outlook": 3716,
      "deep": 3717,
      "chic": 3718,
      "##ists": 3719,
      "matter": 3720,
      "sap": 3721,
      "frame": 3722,
      "approximately": 3723,
      "struct": 3724,
      "atl": 3725,
      "##over": 3726,
      "art": 3727,
      "completes": 3728,
      "lou": 3729,
      "volunte": 3730,
      "sense": 3731,
      "buy": 3732,
      "##75": 3733,
      "updates": 3734,
      "09": 3735,
      "cas": 3736,
      "agent": 3737,
      "perfect": 3738,
      "walking": 3739,
      "##org": 3740,
      "##cent": 3741,
      "compassion": 3742,
      "##ls": 3743,
      "virt": 3744,
      "mass": 3745,
      "##ody": 3746,
      "nights": 3747,
      "##oph": 3748,
      "money": 3749,
      "##ury": 3750,
      "cycle": 3751,
      "##ints": 3752,
      "##unch": 3753,
      "surve": 3754,
      "shi": 3755,
      "##35": 3756,
      "indic": 3757,
      "characteristic": 3758,
      "placement": 3759,
      "contain": 3760,
      "##arily": 3761,
      "nj": 3762,
      "##ci": 3763,
      "resumes": 3764,
      "keeping": 3765,
      "err": 3766,
      "colorado": 3767,
      "rober": 3768,
      "rehabilit": 3769,
      "##aints": 3770,
      "accountable": 3771,
      "clerical": 3772,
      "##85": 3773,
      "measure": 3774,
      "recon": 3775,
      "worker": 3776,
      "men": 3777,
      "##41": 3778,
      "lia": 3779,
      "east": 3780,
      "##respond": 3781,
      "##31": 3782,
      "##ian": 3783,
      "miles": 3784,
      "statis": 3785,
      "##aign": 3786,
      "cardi": 3787,
      "contractor": 3788,
      "##ancing": 3789,
      "depending": 3790,
      "franc": 3791,
      "cy": 3792,
      "##reg": 3793,
      "video": 3794,
      "women": 3795,
      "##otes": 3796,
      "##kn": 3797,
      "##nes": 3798,
      "##kl": 3799,
      "tem": 3800,
      "correspond": 3801,
      "channel": 3802,
      "sever": 3803,
      "##cing": 3804,
      "##other": 3805,
      "technicians": 3806,
      "qualification": 3807,
      "advice": 3808,
      "overtime": 3809,
      "metrics": 3810,
      "integrated": 3811,
      "study": 3812,
      "secure": 3813,
      "ways": 3814,
      "##old": 3815,
      "received": 3816,
      "franch": 3817,
      "depth": 3818,
      "##cul": 3819,
      "##aint": 3820,
      "operator": 3821,
      "##und": 3822,
      "##comm": 3823,
      "interm": 3824,
      "automation": 3825,
      "put": 3826,
      "oracle": 3827,
      "##ba": 3828,
      "administrator": 3829,
      "pick": 3830,
      "wee": 3831,
      "careg": 3832,
      "agile": 3833,
      "##su": 3834,
      "del": 3835,
      "den": 3836,
      "##duce": 3837,
      "discounts": 3838,
      "campaign": 3839,
      "classroom": 3840,
      "clearly": 3841,
      "##ips": 3842,
      "accountability": 3843,
      "entire": 3844,
      "colleagues": 3845,
      "##26": 3846,
      "spir": 3847,
      "weeks": 3848,
      "gain": 3849,
      "##idge": 3850,
      "temper": 3851,
      "fres": 3852,
      "succeed": 3853,
      "promotion": 3854,
      "chicago": 3855,
      "asset": 3856,
      "##uts": 3857,
      "compl": 3858,
      "guide": 3859,
      "anc": 3860,
      "same": 3861,
      "book": 3862,
      "rating": 3863,
      "acute": 3864,
      "55": 3865,
      "occasional": 3866,
      "affili": 3867,
      "licenses": 3868,
      "models": 3869,
      "tran": 3870,
      "advant": 3871,
      "cases": 3872,
      "encourage": 3873,
      "aa": 3874,
      "##tising": 3875,
      "proof": 3876,
      "immediately": 3877,
      "mean": 3878,
      "sensi": 3879,
      "recent": 3880,
      "yours": 3881,
      "pers": 3882,
      "classification": 3883,
      "crew": 3884,
      "powerpoint": 3885,
      "advertising": 3886,
      "encouraged": 3887,
      "priority": 3888,
      "third": 3889,
      "helps": 3890,
      "radi": 3891,
      "carol": 3892,
      "intelligence": 3893,
      "assessments": 3894,
      "##81": 3895,
      "sure": 3896,
      "freight": 3897,
      "result": 3898,
      "scale": 3899,
      "listing": 3900,
      "seekers": 3901,
      "urg": 3902,
      "##95": 3903,
      "##hs": 3904,
      "lines": 3905,
      "sound": 3906,
      "residential": 3907,
      "sem": 3908,
      "clerk": 3909,
      "##bor": 3910,
      "rev": 3911,
      "mort": 3912,
      "sustain": 3913,
      "##essive": 3914,
      "assets": 3915,
      "coordinating": 3916,
      "income": 3917,
      "appointment": 3918,
      "##iors": 3919,
      "platforms": 3920,
      "##fr": 3921,
      "confer": 3922,
      "confidentiality": 3923,
      "forec": 3924,
      "##ansas": 3925,
      "##wood": 3926,
      "departmental": 3927,
      "pressure": 3928,
      "##sters": 3929,
      "prevent": 3930,
      "housing": 3931,
      "party": 3932,
      "secret": 3933,
      "bed": 3934,
      "##ience": 3935,
      "pip": 3936,
      "organize": 3937,
      "rand": 3938,
      "cv": 3939,
      "housekeeping": 3940,
      "##aste": 3941,
      "identifies": 3942,
      "##ored": 3943,
      "##ration": 3944,
      "##let": 3945,
      "prompt": 3946,
      "tell": 3947,
      "examp": 3948,
      "rehabilitation": 3949,
      "demand": 3950,
      "capac": 3951,
      "tests": 3952,
      "##health": 3953,
      "meets": 3954,
      "sun": 3955,
      "pregn": 3956,
      "matters": 3957,
      "far": 3958,
      "paperwork": 3959,
      "##gage": 3960,
      "generous": 3961,
      "rewards": 3962,
      "done": 3963,
      "described": 3964,
      "##elves": 3965,
      "pride": 3966,
      "advoc": 3967,
      "inside": 3968,
      "##lder": 3969,
      "mich": 3970,
      "unload": 3971,
      "early": 3972,
      "cooper": 3973,
      "discre": 3974,
      "##24": 3975,
      "supplemental": 3976,
      "conducts": 3977,
      "kneel": 3978,
      "verification": 3979,
      "pregnancy": 3980,
      "shopping": 3981,
      "adhere": 3982,
      "invo": 3983,
      "brow": 3984,
      "much": 3985,
      "appropriately": 3986,
      "##liness": 3987,
      "referr": 3988,
      "characteristics": 3989,
      "allied": 3990,
      "##tiveness": 3991,
      "robert": 3992,
      "francisco": 3993,
      "final": 3994,
      "login": 3995,
      "lat": 3996,
      "greater": 3997,
      "association": 3998,
      "angel": 3999,
      "lp": 4000,
      "800": 4001,
      "strongly": 4002,
      "payments": 4003,
      "average": 4004,
      "practical": 4005,
      "submitted": 4006,
      "shipping": 4007,
      "founded": 4008,
      "categories": 4009,
      "typical": 4010,
      "criter": 4011,
      "happ": 4012,
      "##ars": 4013,
      "agents": 4014,
      "flu": 4015,
      "columb": 4016,
      "everything": 4017,
      "spending": 4018,
      "cir": 4019,
      "express": 4020,
      "##enses": 4021,
      "incumb": 4022,
      "features": 4023,
      "could": 4024,
      "enroll": 4025,
      "cpr": 4026,
      "having": 4027,
      "rooms": 4028,
      "calcul": 4029,
      "updated": 4030,
      "his": 4031,
      "econom": 4032,
      "foster": 4033,
      "input": 4034,
      "vo": 4035,
      "challenging": 4036,
      "mathema": 4037,
      "behavioral": 4038,
      "safely": 4039,
      "inclusion": 4040,
      "reconc": 4041,
      "##ever": 4042,
      "war": 4043,
      "sat": 4044,
      "cul": 4045,
      "hou": 4046,
      "loading": 4047,
      "##27": 4048,
      "persons": 4049,
      "upload": 4050,
      "style": 4051,
      "criteria": 4052,
      "lad": 4053,
      "scan": 4054,
      "surgery": 4055,
      "##repr": 4056,
      "framework": 4057,
      "cashier": 4058,
      "##areness": 4059,
      "light": 4060,
      "##iven": 4061,
      "bonuses": 4062,
      "improvements": 4063,
      "awareness": 4064,
      "communicating": 4065,
      "objects": 4066,
      "motor": 4067,
      "several": 4068,
      "transaction": 4069,
      "##yl": 4070,
      "disch": 4071,
      "hill": 4072,
      "trade": 4073,
      "instru": 4074,
      "gro": 4075,
      "given": 4076,
      "certificate": 4077,
      "gather": 4078,
      "##ico": 4079,
      "filled": 4080,
      "carolina": 4081,
      "break": 4082,
      "appointments": 4083,
      "##cs": 4084,
      "fem": 4085,
      "selec": 4086,
      "spirit": 4087,
      "delivers": 4088,
      "loss": 4089,
      "proactively": 4090,
      "abs": 4091,
      "furn": 4092,
      "inj": 4093,
      "virtual": 4094,
      "##ream": 4095,
      "##mal": 4096,
      "exerc": 4097,
      "prevention": 4098,
      "##uly": 4099,
      "##ither": 4100,
      "text": 4101,
      "until": 4102,
      "union": 4103,
      "curric": 4104,
      "discrimination": 4105,
      "street": 4106,
      "supervise": 4107,
      "intended": 4108,
      "minimal": 4109,
      "minorities": 4110,
      "##esty": 4111,
      "jack": 4112,
      "##ames": 4113,
      "##estry": 4114,
      "houston": 4115,
      "produce": 4116,
      "##ins": 4117,
      "##ris": 4118,
      "comput": 4119,
      "##61": 4120,
      "collect": 4121,
      "protocols": 4122,
      "##teous": 4123,
      "winning": 4124,
      "administer": 4125,
      "courteous": 4126,
      "maximize": 4127,
      "conducting": 4128,
      "navig": 4129,
      "sing": 4130,
      "sick": 4131,
      "fing": 4132,
      "##ester": 4133,
      "courses": 4134,
      "##47": 4135,
      "angeles": 4136,
      "mand": 4137,
      "##inois": 4138,
      "carri": 4139,
      "caring": 4140,
      "##idents": 4141,
      "liaison": 4142,
      "blo": 4143,
      "bel": 4144,
      "yourself": 4145,
      "##fy": 4146,
      "ownership": 4147,
      "thrive": 4148,
      "##van": 4149,
      "vacancy": 4150,
      "billion": 4151,
      "bend": 4152,
      "escal": 4153,
      "spanish": 4154,
      "snap": 4155,
      "designs": 4156,
      "ohio": 4157,
      "##ector": 4158,
      "beach": 4159,
      "sets": 4160,
      "illinois": 4161,
      "statements": 4162,
      "once": 4163,
      "doll": 4164,
      "effec": 4165,
      "##els": 4166,
      "samp": 4167,
      "implements": 4168,
      "extra": 4169,
      "evenings": 4170,
      "bending": 4171,
      "jan": 4172,
      "empower": 4173,
      "forkl": 4174,
      "##ales": 4175,
      "correspondence": 4176,
      "##ban": 4177,
      "authorization": 4178,
      "##ona": 4179,
      "trucks": 4180,
      "effectiveness": 4181,
      "##urs": 4182,
      "either": 4183,
      "cleanliness": 4184,
      "##istry": 4185,
      "file": 4186,
      "capacity": 4187,
      "chance": 4188,
      "##ptions": 4189,
      "keywords": 4190,
      "##erge": 4191,
      "representatives": 4192,
      "##28": 4193,
      "reading": 4194,
      "mortgage": 4195,
      "det": 4196,
      "gree": 4197,
      "deposit": 4198,
      "creates": 4199,
      "procedure": 4200,
      "another": 4201,
      "subsi": 4202,
      "format": 4203,
      "##39": 4204,
      "foundation": 4205,
      "ey": 4206,
      "mil": 4207,
      "ado": 4208,
      "bls": 4209,
      "curricul": 4210,
      "lay": 4211,
      "sports": 4212,
      "##gt": 4213,
      "interests": 4214,
      "dise": 4215,
      "##flow": 4216,
      "legally": 4217,
      "##sight": 4218,
      "sale": 4219,
      "##ham": 4220,
      "##cripts": 4221,
      "audits": 4222,
      "weather": 4223,
      "inspection": 4224,
      "##37": 4225,
      "supervisors": 4226,
      "green": 4227,
      "atlanta": 4228,
      "##olis": 4229,
      "##38": 4230,
      "energe": 4231,
      "choose": 4232,
      "sy": 4233,
      "##sibility": 4234,
      "36": 4235,
      "interviews": 4236,
      "##wers": 4237,
      "consultants": 4238,
      "##aneous": 4239,
      "promotes": 4240,
      "sug": 4241,
      "##pting": 4242,
      "##itter": 4243,
      "##ds": 4244,
      "85": 4245,
      "costs": 4246,
      "alternative": 4247,
      "gas": 4248,
      "##eets": 4249,
      "energetic": 4250,
      "##aceu": 4251,
      "acquisition": 4252,
      "foods": 4253,
      "bay": 4254,
      "aug": 4255,
      "machines": 4256,
      "##sed": 4257,
      "recovery": 4258,
      "stoc": 4259,
      "circ": 4260,
      "attach": 4261,
      "meaning": 4262,
      "##uted": 4263,
      "squ": 4264,
      "atm": 4265,
      "##eline": 4266,
      "##aa": 4267,
      "countries": 4268,
      "turn": 4269,
      "waste": 4270,
      "fitness": 4271,
      "mn": 4272,
      "advantage": 4273,
      "say": 4274,
      "##29": 4275,
      "involved": 4276,
      "bey": 4277,
      "##36": 4278,
      "cold": 4279,
      "300": 4280,
      "##rs": 4281,
      "##otek": 4282,
      "internship": 4283,
      "##loit": 4284,
      "exempt": 4285,
      "georg": 4286,
      "target": 4287,
      "beyond": 4288,
      "institution": 4289,
      "##acing": 4290,
      "telecomm": 4291,
      "subst": 4292,
      "hearing": 4293,
      "partic": 4294,
      "ever": 4295,
      "interaction": 4296,
      "involve": 4297,
      "everyone": 4298,
      "bri": 4299,
      "litt": 4300,
      "going": 4301,
      "lake": 4302,
      "aerotek": 4303,
      "networking": 4304,
      "trail": 4305,
      "blue": 4306,
      "snapsh": 4307,
      "evening": 4308,
      "dining": 4309,
      "magaz": 4310,
      "quan": 4311,
      "size": 4312,
      "canada": 4313,
      "quarter": 4314,
      "later": 4315,
      "georgia": 4316,
      "coding": 4317,
      "notes": 4318,
      "fail": 4319,
      "##ilt": 4320,
      "configuration": 4321,
      "satisfact": 4322,
      "length": 4323,
      "##tors": 4324,
      "wireless": 4325,
      "##alls": 4326,
      "snapshot": 4327,
      "holiday": 4328,
      "table": 4329,
      "unif": 4330,
      "extre": 4331,
      "little": 4332,
      "##apolis": 4333,
      "simple": 4334,
      "preferably": 4335,
      "##cp": 4336,
      "fresh": 4337,
      "studies": 4338,
      "##entive": 4339,
      "##allas": 4340,
      "recognition": 4341,
      "oversight": 4342,
      "managed": 4343,
      "##itig": 4344,
      "latest": 4345,
      "anticip": 4346,
      "##isi": 4347,
      "controll": 4348,
      "##48": 4349,
      "accepted": 4350,
      "##mark": 4351,
      "##taining": 4352,
      "ancestry": 4353,
      "die": 4354,
      "databases": 4355,
      "##fe": 4356,
      "advisor": 4357,
      "##49": 4358,
      "##ilingual": 4359,
      "transition": 4360,
      "##ids": 4361,
      "curriculum": 4362,
      "sort": 4363,
      "##igan": 4364,
      "##app": 4365,
      "sanitation": 4366,
      "jun": 4367,
      "##loitte": 4368,
      "hired": 4369,
      "##uting": 4370,
      "easy": 4371,
      "civil": 4372,
      "##tition": 4373,
      "wage": 4374,
      "outdo": 4375,
      "generation": 4376,
      "discharge": 4377,
      "bilingual": 4378,
      "gt": 4379,
      "charge": 4380,
      "sensitive": 4381,
      "##thern": 4382,
      "dallas": 4383,
      "outpatient": 4384,
      "##rum": 4385,
      "deloitte": 4386,
      "complaints": 4387,
      "artic": 4388,
      "define": 4389,
      "club": 4390,
      "reaching": 4391,
      "##da": 4392,
      "understands": 4393,
      "##fully": 4394,
      "transl": 4395,
      "defense": 4396,
      "reviewing": 4397,
      "influence": 4398,
      "body": 4399,
      "overn": 4400,
      "##eu": 4401,
      "sharing": 4402,
      "dish": 4403,
      "risks": 4404,
      "##unct": 4405,
      "counseling": 4406,
      "dc": 4407,
      "talk": 4408,
      "prec": 4409,
      "entertain": 4410,
      "smart": 4411,
      "##orship": 4412,
      "unifor": 4413,
      "##aking": 4414,
      "sources": 4415,
      "notice": 4416,
      "however": 4417,
      "thank": 4418,
      "edge": 4419,
      "grap": 4420,
      "##ologies": 4421,
      "##ron": 4422,
      "##oses": 4423,
      "homes": 4424,
      "desir": 4425,
      "##46": 4426,
      "identification": 4427,
      "linked": 4428,
      "ut": 4429,
      "dice": 4430,
      "##78": 4431,
      "volunteer": 4432,
      "enforce": 4433,
      "nat": 4434,
      "formal": 4435,
      "ari": 4436,
      "pharmaceu": 4437,
      "pdf": 4438,
      "instruction": 4439,
      "##unic": 4440,
      "modeling": 4441,
      "##by": 4442,
      "##ashion": 4443,
      "michigan": 4444,
      "station": 4445,
      "speech": 4446,
      "wi": 4447,
      "##ylvan": 4448,
      "fashion": 4449,
      "evaluates": 4450,
      "##top": 4451,
      "fel": 4452,
      "subsidi": 4453,
      "##oen": 4454,
      "gs": 4455,
      "##ffic": 4456,
      "incumbent": 4457,
      "remotely": 4458,
      "adherence": 4459,
      "button": 4460,
      "48": 4461,
      "achieving": 4462,
      "ft": 4463,
      "##za": 4464,
      "pediatric": 4465,
      "dom": 4466,
      "principal": 4467,
      "acts": 4468,
      "##burg": 4469,
      "primarily": 4470,
      "practition": 4471,
      "##ologist": 4472,
      "goog": 4473,
      "retention": 4474,
      "session": 4475,
      "anim": 4476,
      "spring": 4477,
      "submission": 4478,
      "##mber": 4479,
      "cutting": 4480,
      "geo": 4481,
      "rich": 4482,
      "##bound": 4483,
      "sl": 4484,
      "##ember": 4485,
      "strive": 4486,
      "engaging": 4487,
      "boston": 4488,
      "tn": 4489,
      "##the": 4490,
      "aus": 4491,
      "specialists": 4492,
      "requiring": 4493,
      "pi": 4494,
      "computers": 4495,
      "##ediate": 4496,
      "procure": 4497,
      "certain": 4498,
      "agreeing": 4499,
      "kind": 4500,
      "prohib": 4501,
      "initial": 4502,
      "friends": 4503,
      "atmosp": 4504,
      "capable": 4505,
      "constantly": 4506,
      "##yal": 4507,
      "##stad": 4508,
      "challenge": 4509,
      "purchasing": 4510,
      "guard": 4511,
      "65": 4512,
      "choice": 4513,
      "official": 4514,
      "continuously": 4515,
      "structure": 4516,
      "cro": 4517,
      "##ged": 4518,
      "healthy": 4519,
      "##enture": 4520,
      "percent": 4521,
      "penns": 4522,
      "hires": 4523,
      "referrals": 4524,
      "##head": 4525,
      "interactions": 4526,
      "giving": 4527,
      "##71": 4528,
      "##ylvania": 4529,
      "cell": 4530,
      "improving": 4531,
      "substit": 4532,
      "supportive": 4533,
      "recommended": 4534,
      "reception": 4535,
      "google": 4536,
      "exhib": 4537,
      "##oenix": 4538,
      "known": 4539,
      "entertainment": 4540,
      "workflow": 4541,
      "##equ": 4542,
      "##utor": 4543,
      "cart": 4544,
      "scientific": 4545,
      "##ios": 4546,
      "95": 4547,
      "stress": 4548,
      "analyzing": 4549,
      "##ancies": 4550,
      "maximum": 4551,
      "visitors": 4552,
      "inspections": 4553,
      "starter": 4554,
      "maintained": 4555,
      "##airs": 4556,
      "pt": 4557,
      "incoming": 4558,
      "##aud": 4559,
      "fil": 4560,
      "effort": 4561,
      "embr": 4562,
      "evid": 4563,
      "price": 4564,
      "phoenix": 4565,
      "##urday": 4566,
      "weigh": 4567,
      "##bership": 4568,
      "goods": 4569,
      "obser": 4570,
      "##mar": 4571,
      "pennsylvania": 4572,
      "route": 4573,
      "saturday": 4574,
      "rock": 4575,
      "contacts": 4576,
      "automated": 4577,
      "kel": 4578,
      "displays": 4579,
      "creation": 4580,
      "##mc": 4581,
      "medication": 4582,
      "membership": 4583,
      "filing": 4584,
      "expenses": 4585,
      "interface": 4586,
      "cs": 4587,
      "seeks": 4588,
      "contractors": 4589,
      "protect": 4590,
      "ke": 4591,
      "side": 4592,
      "html": 4593,
      "magazine": 4594,
      "participation": 4595,
      "networks": 4596,
      "places": 4597,
      "joh": 4598,
      "randstad": 4599,
      "generate": 4600,
      "prioritiz": 4601,
      "methodologies": 4602,
      "jers": 4603,
      "responses": 4604,
      "interpre": 4605,
      "professionally": 4606,
      "host": 4607,
      "built": 4608,
      "overnight": 4609,
      "particular": 4610,
      "single": 4611,
      "lpn": 4612,
      "trained": 4613,
      "##91": 4614,
      "progressive": 4615,
      "forklift": 4616,
      "atmosphere": 4617,
      "owners": 4618,
      "meaningful": 4619,
      "mary": 4620,
      "army": 4621,
      "##000": 4622,
      "experts": 4623,
      "##sions": 4624,
      "jersey": 4625,
      "anth": 4626,
      "fraud": 4627,
      "ariz": 4628,
      "farm": 4629,
      "diagnostic": 4630,
      "dollar": 4631,
      "acces": 4632,
      "intermediate": 4633,
      "mount": 4634,
      "beginning": 4635,
      "advertis": 4636,
      "deliverables": 4637,
      "manufactur": 4638,
      "##ake": 4639,
      "few": 4640,
      "land": 4641,
      "covered": 4642,
      "exch": 4643,
      "designing": 4644,
      "valley": 4645,
      "helpful": 4646,
      "##po": 4647,
      "ele": 4648,
      "dates": 4649,
      "##arant": 4650,
      "dam": 4651,
      "##98": 4652,
      "pharmac": 4653,
      "tow": 4654,
      "journey": 4655,
      "glass": 4656,
      "arizona": 4657,
      "extreme": 4658,
      "provisions": 4659,
      "sent": 4660,
      "desirable": 4661,
      "mentoring": 4662,
      "moderate": 4663,
      "tac": 4664,
      "assembly": 4665,
      "touch": 4666,
      "##uro": 4667,
      "recip": 4668,
      "licensing": 4669,
      "visits": 4670,
      "##ulate": 4671,
      "packaging": 4672,
      "beverage": 4673,
      "guarant": 4674,
      "rates": 4675,
      "##ull": 4676,
      "premier": 4677,
      "nut": 4678,
      "linkedin": 4679,
      "publish": 4680,
      "##ten": 4681,
      "empha": 4682,
      "##bm": 4683,
      "creed": 4684,
      "admission": 4685,
      "older": 4686,
      "adheres": 4687,
      "css": 4688,
      "persp": 4689,
      "conven": 4690,
      "remain": 4691,
      "deadline": 4692,
      "deleg": 4693,
      "##uck": 4694,
      "whole": 4695,
      "knowledgeable": 4696,
      "mile": 4697,
      "achievement": 4698,
      "supplier": 4699,
      "promotions": 4700,
      "easily": 4701,
      "instructional": 4702,
      "procurement": 4703,
      "evaluating": 4704,
      "applies": 4705,
      "determined": 4706,
      "ups": 4707,
      "replace": 4708,
      "eye": 4709,
      "##ires": 4710,
      "authority": 4711,
      "dress": 4712,
      "approval": 4713,
      "entrepr": 4714,
      "##naire": 4715,
      "device": 4716,
      "hotels": 4717,
      "identified": 4718,
      "thous": 4719,
      "##aps": 4720,
      "cc": 4721,
      "##cular": 4722,
      "saved": 4723,
      "shared": 4724,
      "##erce": 4725,
      "entreprene": 4726,
      "hc": 4727,
      "earning": 4728,
      "##going": 4729,
      "normal": 4730,
      "profitability": 4731,
      "##ased": 4732,
      "##where": 4733,
      "##iversal": 4734,
      "41": 4735,
      "twitter": 4736,
      "population": 4737,
      "##kers": 4738,
      "ip": 4739,
      "finish": 4740,
      "marri": 4741,
      "clicking": 4742,
      "##76": 4743,
      "finger": 4744,
      "bur": 4745,
      "speed": 4746,
      "kansas": 4747,
      "deployment": 4748,
      "budgets": 4749,
      "cam": 4750,
      "professionalism": 4751,
      "viol": 4752,
      "utilization": 4753,
      "receip": 4754,
      "message": 4755,
      "##vac": 4756,
      "involving": 4757,
      "ethic": 4758,
      "sciences": 4759,
      "austin": 4760,
      "shall": 4761,
      "troubleshoot": 4762,
      "sti": 4763,
      "pulling": 4764,
      "offerings": 4765,
      "parents": 4766,
      "intensive": 4767,
      "##kee": 4768,
      "kelly": 4769,
      "##rie": 4770,
      "executing": 4771,
      "feet": 4772,
      "factors": 4773,
      "original": 4774,
      "worked": 4775,
      "loyal": 4776,
      "teachers": 4777,
      "##olic": 4778,
      "noise": 4779,
      "1st": 4780,
      "##lot": 4781,
      "clar": 4782,
      "masters": 4783,
      "answering": 4784,
      "##attle": 4785,
      "measures": 4786,
      "boo": 4787,
      "miss": 4788,
      "promoting": 4789,
      "amazing": 4790,
      "running": 4791,
      "youre": 4792,
      "nutri": 4793,
      "denver": 4794,
      "##isters": 4795,
      "##ug": 4796,
      "fleet": 4797,
      "hazard": 4798,
      "##osoph": 4799,
      "natural": 4800,
      "adequ": 4801,
      "cultural": 4802,
      "confirm": 4803,
      "##ised": 4804,
      "##town": 4805,
      "##coming": 4806,
      "philosoph": 4807,
      "remov": 4808,
      "discover": 4809,
      "ask": 4810,
      "disclo": 4811,
      "##aska": 4812,
      "drives": 4813,
      "electronics": 4814,
      "traffic": 4815,
      "spread": 4816,
      "vital": 4817,
      "questionnaire": 4818,
      "##oo": 4819,
      "true": 4820,
      "##west": 4821,
      "salesforce": 4822,
      "evol": 4823,
      "annually": 4824,
      "stocking": 4825,
      "specif": 4826,
      "universal": 4827,
      "pursu": 4828,
      "utilizes": 4829,
      "##orial": 4830,
      "##34": 4831,
      "oversees": 4832,
      "##pe": 4833,
      "assure": 4834,
      "responds": 4835,
      "##disc": 4836,
      "adm": 4837,
      "suppliers": 4838,
      "carrying": 4839,
      "suff": 4840,
      "adult": 4841,
      "listening": 4842,
      "pharmaceutical": 4843,
      "pto": 4844,
      "##ama": 4845,
      "participating": 4846,
      "led": 4847,
      "compassionate": 4848,
      "repres": 4849,
      "cyber": 4850,
      "quarterly": 4851,
      "backgrounds": 4852,
      "mix": 4853,
      "principals": 4854,
      "lot": 4855,
      "louis": 4856,
      "protective": 4857,
      "acceptable": 4858,
      "ath": 4859,
      "neat": 4860,
      "fal": 4861,
      "##lebr": 4862,
      "mus": 4863,
      "wear": 4864,
      "recognize": 4865,
      "anthem": 4866,
      "nam": 4867,
      "morning": 4868,
      "partnerships": 4869,
      "competency": 4870,
      "foot": 4871,
      "##raft": 4872,
      "restaurants": 4873,
      "rad": 4874,
      "lands": 4875,
      "sitting": 4876,
      "launch": 4877,
      "powered": 4878,
      "towards": 4879,
      "##thes": 4880,
      "consumers": 4881,
      "##dale": 4882,
      "ship": 4883,
      "##lim": 4884,
      "regardless": 4885,
      "##ean": 4886,
      "cur": 4887,
      "esp": 4888,
      "libr": 4889,
      "release": 4890,
      "fuel": 4891,
      "temperature": 4892,
      "specifically": 4893,
      "qa": 4894,
      "##know": 4895,
      "celebr": 4896,
      "summer": 4897,
      "##kets": 4898,
      "conflic": 4899,
      "enthusiastic": 4900,
      "##hood": 4901,
      "hospice": 4902,
      "continued": 4903,
      "equity": 4904,
      "expense": 4905,
      "pain": 4906,
      "rapidly": 4907,
      "rob": 4908,
      "400": 4909,
      "ple": 4910,
      "##aster": 4911,
      "oil": 4912,
      "credential": 4913,
      "onc": 4914,
      "##discipl": 4915,
      "included": 4916,
      "ranked": 4917,
      "codes": 4918,
      "##lined": 4919,
      "peers": 4920,
      "entrepreneur": 4921,
      "firms": 4922,
      "##nic": 4923,
      "##disciplinary": 4924,
      "attr": 4925,
      "##32": 4926,
      "complies": 4927,
      "held": 4928,
      "##etts": 4929,
      "outgoing": 4930,
      "prepared": 4931,
      "electric": 4932,
      "upgr": 4933,
      "alerts": 4934,
      "wells": 4935,
      "hvac": 4936,
      "headquarter": 4937,
      "statistical": 4938,
      "midd": 4939,
      "supervises": 4940,
      "behaviors": 4941,
      "##gi": 4942,
      "##arters": 4943,
      "##af": 4944,
      "allows": 4945,
      "developed": 4946,
      "purposes": 4947,
      "##achus": 4948,
      "##reci": 4949,
      "##96": 4950,
      "machin": 4951,
      "minutes": 4952,
      "##uma": 4953,
      "ep": 4954,
      "concept": 4955,
      "linux": 4956,
      "lever": 4957,
      "##achusetts": 4958,
      "pool": 4959,
      "modern": 4960,
      "answers": 4961,
      "analyzes": 4962,
      "philosophy": 4963,
      "incor": 4964,
      "informed": 4965,
      "51": 4966,
      "classes": 4967,
      "issu": 4968,
      "invoices": 4969,
      "uns": 4970,
      "image": 4971,
      "##ecial": 4972,
      "apr": 4973,
      "diffic": 4974,
      "##avor": 4975,
      "resolving": 4976,
      "perks": 4977,
      "groc": 4978,
      "series": 4979,
      "##iatric": 4980,
      "example": 4981,
      "massachusetts": 4982,
      "voice": 4983,
      "##iring": 4984,
      "blood": 4985,
      "conver": 4986,
      "##ready": 4987,
      "evidence": 4988,
      "headquartered": 4989,
      "reput": 4990,
      "usajobs": 4991,
      "premium": 4992,
      "exposed": 4993,
      "##yth": 4994,
      "##rant": 4995,
      "piz": 4996,
      "sessions": 4997,
      "ord": 4998,
      "##enew": 4999,
      "hom": 5000,
      "thousands": 5001,
      "dot": 5002,
      "youth": 5003,
      "directs": 5004,
      "trusted": 5005,
      "##ological": 5006,
      "august": 5007,
      "##met": 5008,
      "fields": 5009,
      "iii": 5010,
      "sf": 5011,
      "##rist": 5012,
      "proposals": 5013,
      "corp": 5014,
      "emo": 5015,
      "doctor": 5016,
      "##mental": 5017,
      "alert": 5018,
      "assistants": 5019,
      "fore": 5020,
      "medications": 5021,
      "corrective": 5022,
      "estimated": 5023,
      "##rd": 5024,
      "38": 5025,
      "liter": 5026,
      "incentive": 5027,
      "establishing": 5028,
      "try": 5029,
      "apart": 5030,
      "conv": 5031,
      "120": 5032,
      "arts": 5033,
      "marriott": 5034,
      "neuro": 5035,
      "dial": 5036,
      "32": 5037,
      "casual": 5038,
      "joining": 5039,
      "##aff": 5040,
      "already": 5041,
      "wed": 5042,
      "mac": 5043,
      "returns": 5044,
      "##iture": 5045,
      "interven": 5046,
      "campaigns": 5047,
      "##wa": 5048,
      "##adel": 5049,
      "fellow": 5050,
      "oreg": 5051,
      "renew": 5052,
      "steps": 5053,
      "counter": 5054,
      "##ascript": 5055,
      "targets": 5056,
      "appreci": 5057,
      "bea": 5058,
      "oregon": 5059,
      "false": 5060,
      "drawings": 5061,
      "calling": 5062,
      "uniform": 5063,
      "dependable": 5064,
      "option": 5065,
      "payable": 5066,
      "sund": 5067,
      "continually": 5068,
      "leverage": 5069,
      "grant": 5070,
      "arrange": 5071,
      "wood": 5072,
      "sourcing": 5073,
      "issue": 5074,
      "trad": 5075,
      "javascript": 5076,
      "##mps": 5077,
      "ibm": 5078,
      "intro": 5079,
      "minnes": 5080,
      "exercise": 5081,
      "33": 5082,
      "##site": 5083,
      "landsc": 5084,
      "door": 5085,
      "59": 5086,
      "outlined": 5087,
      "##graphic": 5088,
      "surf": 5089,
      "cat": 5090,
      "facing": 5091,
      "##aho": 5092,
      "columbia": 5093,
      "##ought": 5094,
      "fargo": 5095,
      "delivered": 5096,
      "findings": 5097,
      "wisc": 5098,
      "limit": 5099,
      "underw": 5100,
      "mathematical": 5101,
      "sector": 5102,
      "##72": 5103,
      "##ativity": 5104,
      "fab": 5105,
      "alco": 5106,
      "##her": 5107,
      "agreements": 5108,
      "minnesota": 5109,
      "conting": 5110,
      "stri": 5111,
      "##craft": 5112,
      "describe": 5113,
      "practitioner": 5114,
      "pan": 5115,
      "##reach": 5116,
      "outs": 5117,
      "recre": 5118,
      "numer": 5119,
      "foreign": 5120,
      "toward": 5121,
      "disease": 5122,
      "plumb": 5123,
      "reduc": 5124,
      "validation": 5125,
      "js": 5126,
      "##reens": 5127,
      "tips": 5128,
      "indiana": 5129,
      "##tically": 5130,
      "affairs": 5131,
      "absence": 5132,
      "tables": 5133,
      "##pper": 5134,
      "##rees": 5135,
      "ordering": 5136,
      "disciplines": 5137,
      "seg": 5138,
      "demonstrating": 5139,
      "speaking": 5140,
      "osh": 5141,
      "supported": 5142,
      "stooping": 5143,
      "owner": 5144,
      "discretion": 5145,
      "##ken": 5146,
      "cann": 5147,
      "therapeu": 5148,
      "##wise": 5149,
      "perce": 5150,
      "oct": 5151,
      "agreement": 5152,
      "lifec": 5153,
      "forecast": 5154,
      "saying": 5155,
      "emotional": 5156,
      "150": 5157,
      "##adelph": 5158,
      "headquarters": 5159,
      "presence": 5160,
      "valued": 5161,
      "teamm": 5162,
      "sufficient": 5163,
      "edit": 5164,
      "pushing": 5165,
      "commute": 5166,
      "bloc": 5167,
      "mechanic": 5168,
      "collaboratively": 5169,
      "creativity": 5170,
      "crm": 5171,
      "collaborates": 5172,
      "servicing": 5173,
      "references": 5174,
      "##onsin": 5175,
      "39": 5176,
      "river": 5177,
      "prescribed": 5178,
      "##86": 5179,
      "domes": 5180,
      "##fers": 5181,
      "ethnic": 5182,
      "designer": 5183,
      "seattle": 5184,
      "##ser": 5185,
      "verif": 5186,
      "attorn": 5187,
      "plumbing": 5188,
      "accountant": 5189,
      "##etitive": 5190,
      "rein": 5191,
      "je": 5192,
      "evaluations": 5193,
      "outreach": 5194,
      "arms": 5195,
      "thought": 5196,
      "settings": 5197,
      "sd": 5198,
      "alcohol": 5199,
      "institutions": 5200,
      "developers": 5201,
      "edu": 5202,
      "ethical": 5203,
      "wisconsin": 5204,
      "por": 5205,
      "34": 5206,
      "involves": 5207,
      "greet": 5208,
      "reliability": 5209,
      "oncology": 5210,
      "hu": 5211,
      "##adelphia": 5212,
      "additionally": 5213,
      "emphasis": 5214,
      "chemicals": 5215,
      "americas": 5216,
      "cath": 5217,
      "monetary": 5218,
      "interviewing": 5219,
      "punct": 5220,
      "supervising": 5221,
      "points": 5222,
      "surround": 5223,
      "greeting": 5224,
      "dependent": 5225,
      "aide": 5226,
      "ren": 5227,
      "builds": 5228,
      "confidence": 5229,
      "##fs": 5230,
      "##graphy": 5231,
      "named": 5232,
      "nearly": 5233,
      "crouch": 5234,
      "vaccination": 5235,
      "religious": 5236,
      "##estern": 5237,
      "logs": 5238,
      "##ench": 5239,
      "##ancer": 5240,
      "prescription": 5241,
      "voc": 5242,
      "sponsored": 5243,
      "neg": 5244,
      "##set": 5245,
      "educate": 5246,
      "collections": 5247,
      "##ysis": 5248,
      "rf": 5249,
      "visa": 5250,
      "promotional": 5251,
      "generally": 5252,
      "loyalty": 5253,
      "institute": 5254,
      "prn": 5255,
      "survey": 5256,
      "pizza": 5257,
      "ger": 5258,
      "organizing": 5259,
      "##con": 5260,
      "fix": 5261,
      "shelves": 5262,
      "##uity": 5263,
      "philadelphia": 5264,
      "cn": 5265,
      "executives": 5266,
      "cause": 5267,
      "inspect": 5268,
      "logo": 5269,
      "incorpor": 5270,
      "exchange": 5271,
      "##ita": 5272,
      "dedication": 5273,
      "sponsorship": 5274,
      "reflect": 5275,
      "cooperative": 5276,
      "reconcili": 5277,
      "enforcement": 5278,
      "directions": 5279,
      "inspire": 5280,
      "contributes": 5281,
      "climbing": 5282,
      "incenti": 5283,
      "vet": 5284,
      "dispatch": 5285,
      "refle": 5286,
      "diego": 5287,
      "##74": 5288,
      "rd": 5289,
      "productive": 5290,
      "convic": 5291,
      "responding": 5292,
      "lifesty": 5293,
      "##aw": 5294,
      "connec": 5295,
      "ho": 5296,
      "something": 5297,
      "examination": 5298,
      "tradi": 5299,
      "##iation": 5300,
      "receptionist": 5301,
      "menu": 5302,
      "keeps": 5303,
      "91": 5304,
      "servers": 5305,
      "##73": 5306,
      "defin": 5307,
      "##hold": 5308,
      "exemp": 5309,
      "retain": 5310,
      "president": 5311,
      "afford": 5312,
      "##hr": 5313,
      "##mont": 5314,
      "weighing": 5315,
      "june": 5316,
      "maryland": 5317,
      "convers": 5318,
      "negotiation": 5319,
      "##iser": 5320,
      "explore": 5321,
      "##net": 5322,
      "cool": 5323,
      "starts": 5324,
      "diem": 5325,
      "optimize": 5326,
      "analys": 5327,
      "trash": 5328,
      "athle": 5329,
      "evaluated": 5330,
      "hun": 5331,
      "interacting": 5332,
      "distance": 5333,
      "asked": 5334,
      "contributions": 5335,
      "otherwise": 5336,
      "##asting": 5337,
      "spect": 5338,
      "margin": 5339,
      "furniture": 5340,
      "incentives": 5341,
      "hazardous": 5342,
      "compar": 5343,
      "##gs": 5344,
      "cancer": 5345,
      "##eanor": 5346,
      "promptly": 5347,
      "bott": 5348,
      "spreadsh": 5349,
      "##ascular": 5350,
      "weight": 5351,
      "secondary": 5352,
      "##ax": 5353,
      "aptitude": 5354,
      "often": 5355,
      "lifecycle": 5356,
      "entrepreneurial": 5357,
      "searching": 5358,
      "thurs": 5359,
      "joint": 5360,
      "mandatory": 5361,
      "bul": 5362,
      "transpar": 5363,
      "encourages": 5364,
      "weld": 5365,
      "url": 5366,
      "unless": 5367,
      "acknow": 5368,
      "##aced": 5369,
      "centered": 5370,
      "caregivers": 5371,
      "##lity": 5372,
      "calend": 5373,
      "approaches": 5374,
      "##enish": 5375,
      "##unction": 5376,
      "repetitive": 5377,
      "##alle": 5378,
      "channels": 5379,
      "analyses": 5380,
      "cardiac": 5381,
      "deliveries": 5382,
      "##itigation": 5383,
      "mom": 5384,
      "connected": 5385,
      "prob": 5386,
      "tic": 5387,
      "march": 5388,
      "dod": 5389,
      "prin": 5390,
      "prospects": 5391,
      "ster": 5392,
      "served": 5393,
      "lower": 5394,
      "##gest": 5395,
      "replenish": 5396,
      "classified": 5397,
      "inpatient": 5398,
      "##rix": 5399,
      "numbers": 5400,
      "teller": 5401,
      "respir": 5402,
      "enrollment": 5403,
      "h3": 5404,
      "personalized": 5405,
      "##ython": 5406,
      "chie": 5407,
      "advisory": 5408,
      "##gas": 5409,
      "trades": 5410,
      "ia": 5411,
      "shows": 5412,
      "##estim": 5413,
      "degrees": 5414,
      "osha": 5415,
      "intel": 5416,
      "sus": 5417,
      "##homa": 5418,
      "females": 5419,
      "phones": 5420,
      "therapeutic": 5421,
      "sugges": 5422,
      "##ell": 5423,
      "##79": 5424,
      "hazards": 5425,
      "python": 5426,
      "grocery": 5427,
      "mex": 5428,
      "middle": 5429,
      "especial": 5430,
      "properties": 5431,
      "receives": 5432,
      "reloc": 5433,
      "46": 5434,
      "##estimated": 5435,
      "domestic": 5436,
      "started": 5437,
      "champ": 5438,
      "##sc": 5439,
      "utility": 5440,
      "indian": 5441,
      "multit": 5442,
      "advocate": 5443,
      "##ney": 5444,
      "root": 5445,
      "scientist": 5446,
      "qualifying": 5447,
      "suit": 5448,
      "onsite": 5449,
      "island": 5450,
      "manuals": 5451,
      "reputation": 5452,
      "valuable": 5453,
      "ordin": 5454,
      "##12": 5455,
      "charlot": 5456,
      "mont": 5457,
      "observ": 5458,
      "transcripts": 5459,
      "grand": 5460,
      "elements": 5461,
      "signs": 5462,
      "thri": 5463,
      "especially": 5464,
      "languages": 5465,
      "illness": 5466,
      "accenture": 5467,
      "usd": 5468,
      "jackson": 5469,
      "okla": 5470,
      "ky": 5471,
      "chief": 5472,
      "parking": 5473,
      "outdoor": 5474,
      "##uit": 5475,
      "medium": 5476,
      "companys": 5477,
      "##ultaneous": 5478,
      "##pped": 5479,
      "obtained": 5480,
      "simultaneous": 5481,
      "##ern": 5482,
      "clinics": 5483,
      "machinery": 5484,
      "funds": 5485,
      "occupation": 5486,
      "establishes": 5487,
      "urgency": 5488,
      "failure": 5489,
      "et": 5490,
      "santa": 5491,
      "pic": 5492,
      "meal": 5493,
      "fastest": 5494,
      "actual": 5495,
      "getting": 5496,
      "oklahoma": 5497,
      "separ": 5498,
      "preven": 5499,
      "usage": 5500,
      "##uary": 5501,
      "photos": 5502,
      "##ager": 5503,
      "stack": 5504,
      "directing": 5505,
      "worth": 5506,
      "56": 5507,
      "scal": 5508,
      "##limited": 5509,
      "motivate": 5510,
      "aircraft": 5511,
      "engaged": 5512,
      "edi": 5513,
      "pipeline": 5514,
      "orth": 5515,
      "3rd": 5516,
      "workload": 5517,
      "demeanor": 5518,
      "cards": 5519,
      "contingent": 5520,
      "checking": 5521,
      "tur": 5522,
      "traditional": 5523,
      "enti": 5524,
      "##gu": 5525,
      "favor": 5526,
      "desktop": 5527,
      "setup": 5528,
      "funda": 5529,
      "2nd": 5530,
      "888": 5531,
      "topics": 5532,
      "##emp": 5533,
      "retrie": 5534,
      "##bes": 5535,
      "analysts": 5536,
      "fabric": 5537,
      "wages": 5538,
      "attends": 5539,
      "medicare": 5540,
      "carp": 5541,
      "00pm": 5542,
      "cultiv": 5543,
      "##boarding": 5544,
      "abuse": 5545,
      "soci": 5546,
      "hyd": 5547,
      "exclu": 5548,
      "mut": 5549,
      "rotating": 5550,
      "label": 5551,
      "nutrition": 5552,
      "##eries": 5553,
      "officers": 5554,
      "cater": 5555,
      "aws": 5556,
      "instructor": 5557,
      "submitting": 5558,
      "resort": 5559,
      "lu": 5560,
      "errors": 5561,
      "66": 5562,
      "cleans": 5563,
      "incidents": 5564,
      "audi": 5565,
      "unlimited": 5566,
      "stable": 5567,
      "thursday": 5568,
      "brief": 5569,
      "truly": 5570,
      "##ned": 5571,
      "journal": 5572,
      "meals": 5573,
      "ks": 5574,
      "coast": 5575,
      "compe": 5576,
      "parties": 5577,
      "49": 5578,
      "tag": 5579,
      "feb": 5580,
      "emerging": 5581,
      "chef": 5582,
      "left": 5583,
      "##riger": 5584,
      "ethics": 5585,
      "cannot": 5586,
      "capability": 5587,
      "index": 5588,
      "methodology": 5589,
      "##lbs": 5590,
      "brook": 5591,
      "satisfactor": 5592,
      "scri": 5593,
      "treatments": 5594,
      "finding": 5595,
      "refriger": 5596,
      "##mo": 5597,
      "numerous": 5598,
      "adobe": 5599,
      "exha": 5600,
      "##orting": 5601,
      "satisfactorily": 5602,
      "personality": 5603,
      "technologist": 5604,
      "##ati": 5605,
      "might": 5606,
      "##lig": 5607,
      "wait": 5608,
      "optimization": 5609,
      "error": 5610,
      "##owa": 5611,
      "expanding": 5612,
      "lifestyle": 5613,
      "carrier": 5614,
      "reduce": 5615,
      "preventative": 5616,
      "gar": 5617,
      "away": 5618,
      "##43": 5619,
      "amount": 5620,
      "gard": 5621,
      "rent": 5622,
      "exceeding": 5623,
      "##entials": 5624,
      "investigations": 5625,
      "stop": 5626,
      "##rec": 5627,
      "ladders": 5628,
      "happy": 5629,
      "modify": 5630,
      "marketplace": 5631,
      "conve": 5632,
      "charlotte": 5633,
      "adequate": 5634,
      "verbally": 5635,
      "unloading": 5636,
      "conferences": 5637,
      "grounds": 5638,
      "##lington": 5639,
      "portland": 5640,
      "subsidiaries": 5641,
      "alignment": 5642,
      "bath": 5643,
      "##osition": 5644,
      "groom": 5645,
      "operated": 5646,
      "imaging": 5647,
      "##veland": 5648,
      "punctual": 5649,
      "switch": 5650,
      "hi": 5651,
      "highl": 5652,
      "letters": 5653,
      "incident": 5654,
      "##asant": 5655,
      "strict": 5656,
      "connections": 5657,
      "pgt": 5658,
      "gathering": 5659,
      "##rete": 5660,
      "dece": 5661,
      "operators": 5662,
      "radio": 5663,
      "jus": 5664,
      "reasons": 5665,
      "##atic": 5666,
      "connection": 5667,
      "bc": 5668,
      "specim": 5669,
      "junior": 5670,
      "58": 5671,
      "southern": 5672,
      "telecommunic": 5673,
      "apple": 5674,
      "specialties": 5675,
      "doe": 5676,
      "buildings": 5677,
      "tail": 5678,
      "increasing": 5679,
      "awards": 5680,
      "parent": 5681,
      "relocate": 5682,
      "##ette": 5683,
      "deposits": 5684,
      "##grad": 5685,
      "wy": 5686,
      "##que": 5687,
      "##mond": 5688,
      "governance": 5689,
      "concise": 5690,
      "##ny": 5691,
      "concrete": 5692,
      "##igs": 5693,
      "cb": 5694,
      "mobility": 5695,
      "franchis": 5696,
      "champion": 5697,
      "rental": 5698,
      "structures": 5699,
      "hills": 5700,
      "ave": 5701,
      "cna": 5702,
      "round": 5703,
      "reviewed": 5704,
      "##asp": 5705,
      "advertise": 5706,
      "fulfillment": 5707,
      "july": 5708,
      "library": 5709,
      "notify": 5710,
      "functionality": 5711,
      "timeestimated": 5712,
      "explain": 5713,
      "poli": 5714,
      "busy": 5715,
      "iowa": 5716,
      "beauty": 5717,
      "bright": 5718,
      "employed": 5719,
      "court": 5720,
      "kneeling": 5721,
      "##well": 5722,
      "##xter": 5723,
      "iv": 5724,
      "##sure": 5725,
      "affect": 5726,
      "jose": 5727,
      "accreditation": 5728,
      "##ystems": 5729,
      "adhering": 5730,
      "simultaneously": 5731,
      "deb": 5732,
      "tan": 5733,
      "##uate": 5734,
      "instruments": 5735,
      "##16": 5736,
      "obtaining": 5737,
      "directors": 5738,
      "introduc": 5739,
      "commerce": 5740,
      "##ners": 5741,
      "tenness": 5742,
      "saint": 5743,
      "wholes": 5744,
      "##ump": 5745,
      "resolves": 5746,
      "acls": 5747,
      "hair": 5748,
      "##full": 5749,
      "conducted": 5750,
      "command": 5751,
      "nv": 5752,
      "37": 5753,
      "lending": 5754,
      "##ah": 5755,
      "endor": 5756,
      "teammates": 5757,
      "messages": 5758,
      "##umenting": 5759,
      "stair": 5760,
      "eu": 5761,
      "son": 5762,
      "discuss": 5763,
      "january": 5764,
      "bever": 5765,
      "vocational": 5766,
      "preca": 5767,
      "fixt": 5768,
      "statistics": 5769,
      "cow": 5770,
      "##state": 5771,
      "missour": 5772,
      "relating": 5773,
      "followed": 5774,
      "comes": 5775,
      "documenting": 5776,
      "##ami": 5777,
      "exclusive": 5778,
      "respected": 5779,
      "mexico": 5780,
      "merc": 5781,
      "tennessee": 5782,
      "destin": 5783,
      "sheets": 5784,
      "cities": 5785,
      "##otech": 5786,
      "icu": 5787,
      "##iss": 5788,
      "compass": 5789,
      "##atrics": 5790,
      "optimal": 5791,
      "warm": 5792,
      "quanti": 5793,
      "tier": 5794,
      "craw": 5795,
      "transfers": 5796,
      "sunday": 5797,
      "reply": 5798,
      "motivation": 5799,
      "postal": 5800,
      "##aks": 5801,
      "crisis": 5802,
      "neigh": 5803,
      "salon": 5804,
      "param": 5805,
      "missouri": 5806,
      "element": 5807,
      "600": 5808,
      "millions": 5809,
      "objective": 5810,
      "harass": 5811,
      "cad": 5812,
      "##irect": 5813,
      "loans": 5814,
      "pacific": 5815,
      "black": 5816,
      "##umen": 5817,
      "proposal": 5818,
      "##ats": 5819,
      "beau": 5820,
      "caregiver": 5821,
      "carefully": 5822,
      "enthusias": 5823,
      "##och": 5824,
      "coff": 5825,
      "component": 5826,
      "metro": 5827,
      "sept": 5828,
      "recommends": 5829,
      "##ospace": 5830,
      "harassment": 5831,
      "arti": 5832,
      "##inated": 5833,
      "disciplinary": 5834,
      "##irth": 5835,
      "interactive": 5836,
      "december": 5837,
      "cab": 5838,
      "appra": 5839,
      "funding": 5840,
      "##gen": 5841,
      "##selves": 5842,
      "hil": 5843,
      "30pm": 5844,
      "##ighting": 5845,
      "enjoys": 5846,
      "signed": 5847,
      "floors": 5848,
      "terminology": 5849,
      "diagr": 5850,
      "aerospace": 5851,
      "developmental": 5852,
      "##lin": 5853,
      "stream": 5854,
      "intervention": 5855,
      "segment": 5856,
      "250": 5857,
      "genu": 5858,
      "western": 5859,
      "rh": 5860,
      "animal": 5861,
      "ot": 5862,
      "##born": 5863,
      "worlds": 5864,
      "ingr": 5865,
      "cisco": 5866,
      "cleveland": 5867,
      "histories": 5868,
      "##cell": 5869,
      "choices": 5870,
      "vp": 5871,
      "erp": 5872,
      "ourselves": 5873,
      "##eet": 5874,
      "administers": 5875,
      "##urate": 5876,
      "transformation": 5877,
      "story": 5878,
      "auditing": 5879,
      "samples": 5880,
      "##ittee": 5881,
      "minority": 5882,
      "stocked": 5883,
      "spectrum": 5884,
      "##px": 5885,
      "king": 5886,
      "visi": 5887,
      "dealing": 5888,
      "entering": 5889,
      "bringing": 5890,
      "stations": 5891,
      "reflec": 5892,
      "interventions": 5893,
      "heights": 5894,
      "susp": 5895,
      "longer": 5896,
      "concerning": 5897,
      "##encing": 5898,
      "genuine": 5899,
      "varied": 5900,
      "sand": 5901,
      "##utional": 5902,
      "##olicited": 5903,
      "mal": 5904,
      "unsolicited": 5905,
      "orland": 5906,
      "dry": 5907,
      "kent": 5908,
      "overseeing": 5909,
      "committee": 5910,
      "nationally": 5911,
      "##vada": 5912,
      "flag": 5913,
      "threat": 5914,
      "grasp": 5915,
      "consultation": 5916,
      "economic": 5917,
      "##42": 5918,
      "##alleled": 5919,
      "pleasant": 5920,
      "aim": 5921,
      "respiratory": 5922,
      "restric": 5923,
      "retailer": 5924,
      "adults": 5925,
      "forecasting": 5926,
      "##junction": 5927,
      "contribution": 5928,
      "oak": 5929,
      "##bi": 5930,
      "pace": 5931,
      "adjustments": 5932,
      "beauti": 5933,
      "##ero": 5934,
      "lean": 5935,
      "##neapolis": 5936,
      "##down": 5937,
      "hygi": 5938,
      "unpar": 5939,
      "##cast": 5940,
      "citizen": 5941,
      "determining": 5942,
      "##ider": 5943,
      "trailer": 5944,
      "september": 5945,
      "##iers": 5946,
      "waiting": 5947,
      "usually": 5948,
      "unparalleled": 5949,
      "issued": 5950,
      "estimates": 5951,
      "##igration": 5952,
      "landscape": 5953,
      "tues": 5954,
      "physically": 5955,
      "##83": 5956,
      "roll": 5957,
      "exhaus": 5958,
      "certificates": 5959,
      "yet": 5960,
      "##55": 5961,
      "coffee": 5962,
      "female": 5963,
      "competition": 5964,
      "syn": 5965,
      "positively": 5966,
      "assessing": 5967,
      "handles": 5968,
      "admired": 5969,
      "undergrad": 5970,
      "pattern": 5971,
      "institutional": 5972,
      "stability": 5973,
      "minneapolis": 5974,
      "music": 5975,
      "accepting": 5976,
      "##keeper": 5977,
      "agr": 5978,
      "convey": 5979,
      "sac": 5980,
      "exhaustive": 5981,
      "lux": 5982,
      "facilitates": 5983,
      "satisfy": 5984,
      "invite": 5985,
      "embrace": 5986,
      "april": 5987,
      "typing": 5988,
      "##tinent": 5989,
      "asap": 5990,
      "vegas": 5991,
      "advise": 5992,
      "propri": 5993,
      "serious": 5994,
      "hide": 5995,
      "##ource": 5996,
      "white": 5997,
      "timelines": 5998,
      "##89": 5999,
      "thems": 6000,
      "springs": 6001,
      "pays": 6002,
      "toler": 6003,
      "bag": 6004,
      "flat": 6005,
      "themselves": 6006,
      "interdisciplinary": 6007,
      "elev": 6008,
      "wheel": 6009,
      "ss": 6010,
      "cp": 6011,
      "schol": 6012,
      "optional": 6013,
      "chart": 6014,
      "ages": 6015,
      "johns": 6016,
      "remove": 6017,
      "##ooth": 6018,
      "##wor": 6019,
      "accident": 6020,
      "robust": 6021,
      "cowork": 6022,
      "##era": 6023,
      "ultim": 6024,
      "##ides": 6025,
      "preventive": 6026,
      "browse": 6027,
      "##frame": 6028,
      "links": 6029,
      "sheet": 6030,
      "miami": 6031,
      "leveraging": 6032,
      "varying": 6033,
      "receivable": 6034,
      "tract": 6035,
      "##osis": 6036,
      "calendar": 6037,
      "00am": 6038,
      "listings": 6039,
      "orlando": 6040,
      "affordable": 6041,
      "##aling": 6042,
      "providence": 6043,
      "##known": 6044,
      "##dd": 6045,
      "thanks": 6046,
      "nevada": 6047,
      "dexter": 6048,
      "balancing": 6049,
      "##003": 6050,
      "##order": 6051,
      "customized": 6052,
      "##ills": 6053,
      "conference": 6054,
      "political": 6055,
      "participants": 6056,
      "pertinent": 6057,
      "##laim": 6058,
      "disco": 6059,
      "uta": 6060,
      "unknown": 6061,
      "rated": 6062,
      "insight": 6063,
      "que": 6064,
      "talents": 6065,
      "##oring": 6066,
      "culinary": 6067,
      "automa": 6068,
      "wealth": 6069,
      "cvs": 6070,
      "squat": 6071,
      "collaborating": 6072,
      "combined": 6073,
      "trauma": 6074,
      "cooking": 6075,
      "##water": 6076,
      "sole": 6077,
      "proprietary": 6078,
      "##aid": 6079,
      "##bc": 6080,
      "fine": 6081,
      "examples": 6082,
      "conflict": 6083,
      "intellect": 6084,
      "##ots": 6085,
      "##undred": 6086,
      "extraordin": 6087,
      "beverages": 6088,
      "cookies": 6089,
      "broker": 6090,
      "hundred": 6091,
      "dign": 6092,
      "telecommunications": 6093,
      "adoption": 6094,
      "perspectives": 6095,
      "rotation": 6096,
      "doors": 6097,
      "hilton": 6098,
      "quantit": 6099,
      "draf": 6100,
      "orderly": 6101,
      "phases": 6102,
      "workday": 6103,
      "44": 6104,
      "sharepoint": 6105,
      "version": 6106,
      "seven": 6107,
      "difficult": 6108,
      "periodic": 6109,
      "cf": 6110,
      "52": 6111,
      "occur": 6112,
      "acceptance": 6113,
      "discrep": 6114,
      "alab": 6115,
      "gold": 6116,
      "beautiful": 6117,
      "utah": 6118,
      "mv": 6119,
      "pets": 6120,
      "quantitative": 6121,
      "worksh": 6122,
      "hrs": 6123,
      "dialysis": 6124,
      "##print": 6125,
      "manufacturer": 6126,
      "pit": 6127,
      "resorts": 6128,
      "tickets": 6129,
      "##comp": 6130,
      "accountabilities": 6131,
      "##ony": 6132,
      "dynamics": 6133,
      "##19": 6134,
      "##iant": 6135,
      "trains": 6136,
      "##off": 6137,
      "correctly": 6138,
      "watch": 6139,
      "dexterity": 6140,
      "enthusiasm": 6141,
      "underwriting": 6142,
      "##orrow": 6143,
      "pharmacist": 6144,
      "globe": 6145,
      "accidents": 6146,
      "travelers": 6147,
      "europ": 6148,
      "scripting": 6149,
      "##mart": 6150,
      "smooth": 6151,
      "vice": 6152,
      "heat": 6153,
      "os": 6154,
      "involvement": 6155,
      "undergraduate": 6156,
      "prohibited": 6157,
      "inbound": 6158,
      "documented": 6159,
      "attrib": 6160,
      "created": 6161,
      "anton": 6162,
      "##ni": 6163,
      "substance": 6164,
      "conform": 6165,
      "frameworks": 6166,
      "alabama": 6167,
      "##ensurate": 6168,
      "##gers": 6169,
      "except": 6170,
      "anes": 6171,
      "##ding": 6172,
      "controlled": 6173,
      "nash": 6174,
      "appe": 6175,
      "cos": 6176,
      "parental": 6177,
      "initiate": 6178,
      "asc": 6179,
      "commensurate": 6180,
      "extraordinary": 6181,
      "consultative": 6182,
      "promise": 6183,
      "##ears": 6184,
      "soon": 6185,
      "extremely": 6186,
      "furnish": 6187,
      "columbus": 6188,
      "tuesday": 6189,
      "mutual": 6190,
      "stairs": 6191,
      "wholesale": 6192,
      "pallet": 6193,
      "salaries": 6194,
      "##acks": 6195,
      "pages": 6196,
      "bab": 6197,
      "##lif": 6198,
      "sil": 6199,
      "##omet": 6200,
      "hor": 6201,
      "antonio": 6202,
      "advertiser": 6203,
      "##leb": 6204,
      "dignity": 6205,
      "##ws": 6206,
      "##lets": 6207,
      "stage": 6208,
      "trucking": 6209,
      "cogn": 6210,
      "dd": 6211,
      "neighbor": 6212,
      "dust": 6213,
      "sanitiz": 6214,
      "rele": 6215,
      "octo": 6216,
      "acumen": 6217,
      "solar": 6218,
      "executes": 6219,
      "receipt": 6220,
      "bsn": 6221,
      "purs": 6222,
      "##med": 6223,
      "##umber": 6224,
      "veterinary": 6225,
      "schema": 6226,
      "height": 6227,
      "van": 6228,
      "array": 6229,
      "confident": 6230,
      "coworkers": 6231,
      "movement": 6232,
      "##esting": 6233,
      "strengths": 6234,
      "still": 6235,
      "earned": 6236,
      "predic": 6237,
      "integral": 6238,
      "else": 6239,
      "tire": 6240,
      "demo": 6241,
      "added": 6242,
      "enhancements": 6243,
      "radiology": 6244,
      "##ept": 6245,
      "accessible": 6246,
      "interior": 6247,
      "navigation": 6248,
      "rapport": 6249,
      "gm": 6250,
      "##ulations": 6251,
      "##ii": 6252,
      "##18": 6253,
      "october": 6254,
      "##lands": 6255,
      "bat": 6256,
      "advisors": 6257,
      "##mon": 6258,
      "aware": 6259,
      "connecting": 6260,
      "complexity": 6261,
      "##ores": 6262,
      "determines": 6263,
      "solic": 6264,
      "termination": 6265,
      "##box": 6266,
      "42": 6267,
      "fixtures": 6268,
      "audiences": 6269,
      "partnering": 6270,
      "vacancies": 6271,
      "conjunction": 6272,
      "##don": 6273,
      "postings": 6274,
      "scrum": 6275,
      "##lt": 6276,
      "##isitions": 6277,
      "##otyp": 6278,
      "interfaces": 6279,
      "sustainable": 6280,
      "assesses": 6281,
      "##ening": 6282,
      "##lying": 6283,
      "recently": 6284,
      "graphic": 6285,
      "volunt": 6286,
      "ada": 6287,
      "civili": 6288,
      "##ampa": 6289,
      "differences": 6290,
      "temperatures": 6291,
      "##olf": 6292,
      "wareh": 6293,
      "recognizes": 6294,
      "mountain": 6295,
      "outbound": 6296,
      "transmission": 6297,
      "cpa": 6298,
      "computing": 6299,
      "##ending": 6300,
      "##any": 6301,
      "##aming": 6302,
      "##97": 6303,
      "placing": 6304,
      "satisfactory": 6305,
      "studio": 6306,
      "dil": 6307,
      "matrix": 6308,
      "##ticut": 6309,
      "api": 6310,
      "contacted": 6311,
      "perception": 6312,
      "louisi": 6313,
      "wil": 6314,
      "respectful": 6315,
      "ladder": 6316,
      "welcoming": 6317,
      "permit": 6318,
      "##2b": 6319,
      "##requ": 6320,
      "exped": 6321,
      "diagnosis": 6322,
      "updating": 6323,
      "##eck": 6324,
      "calculations": 6325,
      "##oks": 6326,
      "mathematics": 6327,
      "##otom": 6328,
      "trainee": 6329,
      "downtown": 6330,
      "addressing": 6331,
      "##rooms": 6332,
      "47": 6333,
      "pil": 6334,
      "##ucky": 6335,
      "proceed": 6336,
      "peer": 6337,
      "translate": 6338,
      "did": 6339,
      "##entist": 6340,
      "academy": 6341,
      "attending": 6342,
      "louisiana": 6343,
      "too": 6344,
      "presenting": 6345,
      "targeted": 6346,
      "importance": 6347,
      "orthop": 6348,
      "##lies": 6349,
      "ee": 6350,
      "integrate": 6351,
      "attendant": 6352,
      "collective": 6353,
      "##rich": 6354,
      "##68": 6355,
      "qr": 6356,
      "unable": 6357,
      "connecticut": 6358,
      "craigs": 6359,
      "emails": 6360,
      "bridge": 6361,
      "selecting": 6362,
      "merchandiser": 6363,
      "##icult": 6364,
      "##201": 6365,
      "##east": 6366,
      "assisted": 6367,
      "craigslist": 6368,
      "admissions": 6369,
      "competitors": 6370,
      "genetics": 6371,
      "##ering": 6372,
      "vic": 6373,
      "##fit": 6374,
      "civilian": 6375,
      "surrounding": 6376,
      "pict": 6377,
      "fedex": 6378,
      "psychiatric": 6379,
      "und": 6380,
      "fish": 6381,
      "assem": 6382,
      "negotiate": 6383,
      "43": 6384,
      "metal": 6385,
      "laund": 6386,
      "unix": 6387,
      "merit": 6388,
      "searches": 6389,
      "determination": 6390,
      "employs": 6391,
      "nove": 6392,
      "phleb": 6393,
      "alaska": 6394,
      "charts": 6395,
      "signing": 6396,
      "##bridge": 6397,
      "discrepancies": 6398,
      "represents": 6399,
      "dak": 6400,
      "town": 6401,
      "##17": 6402,
      "gift": 6403,
      "discovery": 6404,
      "welding": 6405,
      "feature": 6406,
      "smile": 6407,
      "##ervice": 6408,
      "measurement": 6409,
      "acknowledge": 6410,
      "pediatrics": 6411,
      "bart": 6412,
      "##long": 6413,
      "##timore": 6414,
      "distributed": 6415,
      "##erve": 6416,
      "hoc": 6417,
      "commitments": 6418,
      "variable": 6419,
      "interacts": 6420,
      "bottom": 6421,
      "catering": 6422,
      "independence": 6423,
      "autonom": 6424,
      "##boro": 6425,
      "injury": 6426,
      "laundry": 6427,
      "therefore": 6428,
      "franchise": 6429,
      "vm": 6430,
      "otr": 6431,
      "gives": 6432,
      "##ruary": 6433,
      "##ucks": 6434,
      "##94": 6435,
      "justice": 6436,
      "game": 6437,
      "voluntary": 6438,
      "ranging": 6439,
      "vib": 6440,
      "february": 6441,
      "101": 6442,
      "outsour": 6443,
      "ambul": 6444,
      "##67": 6445,
      "paych": 6446,
      "onboarding": 6447,
      "removal": 6448,
      "vaccinated": 6449,
      "opt": 6450,
      "personally": 6451,
      "pertaining": 6452,
      "insur": 6453,
      "behalf": 6454,
      "macy": 6455,
      "spok": 6456,
      "fee": 6457,
      "leasing": 6458,
      "pas": 6459,
      "enables": 6460,
      "phlebotom": 6461,
      "perip": 6462,
      "won": 6463,
      "generating": 6464,
      "blog": 6465,
      "##13": 6466,
      "probation": 6467,
      "866": 6468,
      "domain": 6469,
      "reserv": 6470,
      "##careers": 6471,
      "##inations": 6472,
      "##urity": 6473,
      "intellectual": 6474,
      "nas": 6475,
      "der": 6476,
      "hut": 6477,
      "lasting": 6478,
      "indianapolis": 6479,
      "##link": 6480,
      "expan": 6481,
      "cable": 6482,
      "mas": 6483,
      "##sements": 6484,
      "semester": 6485,
      "##izations": 6486,
      "oblig": 6487,
      "tv": 6488,
      "##edom": 6489,
      "##employ": 6490,
      "dilig": 6491,
      "##ena": 6492,
      "behind": 6493,
      "surfaces": 6494,
      "preferences": 6495,
      "nov": 6496,
      "architectural": 6497,
      "##icu": 6498,
      "volunteers": 6499,
      "attorney": 6500,
      "boxes": 6501,
      "websites": 6502,
      "greatest": 6503,
      "lists": 6504,
      "agricult": 6505,
      "1000": 6506,
      "recording": 6507,
      "baltimore": 6508,
      "##oid": 6509,
      "hundreds": 6510,
      "incred": 6511,
      "loads": 6512,
      "taken": 6513,
      "rail": 6514,
      "mindset": 6515,
      "##emed": 6516,
      "spaces": 6517,
      "##logy": 6518,
      "aviation": 6519,
      "frequency": 6520,
      "honesty": 6521,
      "##oted": 6522,
      "##nesday": 6523,
      "backup": 6524,
      "responsive": 6525,
      "##safe": 6526,
      "##zer": 6527,
      "relate": 6528,
      "dakota": 6529,
      "w2": 6530,
      "rotate": 6531,
      "##vd": 6532,
      "dash": 6533,
      "graduation": 6534,
      "replacement": 6535,
      "reserves": 6536,
      "boards": 6537,
      "november": 6538,
      "possesses": 6539,
      "internally": 6540,
      "stated": 6541,
      "##arel": 6542,
      "coaches": 6543,
      "globally": 6544,
      "tour": 6545,
      "vill": 6546,
      "wednesday": 6547,
      "collects": 6548,
      "seeker": 6549,
      "therapists": 6550,
      "##apply": 6551,
      "##sia": 6552,
      "definition": 6553,
      "sweep": 6554,
      "counts": 6555,
      "chemistry": 6556,
      "cou": 6557,
      "##aping": 6558,
      "fees": 6559,
      "94": 6560,
      "violations": 6561,
      "prolong": 6562,
      "unus": 6563,
      "##87": 6564,
      "substitute": 6565,
      "ark": 6566,
      "remains": 6567,
      "ak": 6568,
      "thing": 6569,
      "attain": 6570,
      "province": 6571,
      "kentucky": 6572,
      "accessibility": 6573,
      "stories": 6574,
      "patterns": 6575,
      "interpretation": 6576,
      "2008": 6577,
      "tampa": 6578,
      "nashville": 6579,
      "contributing": 6580,
      "mt": 6581,
      "acting": 6582,
      "liability": 6583,
      "fisc": 6584,
      "focusing": 6585,
      "surveys": 6586,
      "##14": 6587,
      "audience": 6588,
      "##tees": 6589,
      "anticipate": 6590,
      "cance": 6591,
      "apparel": 6592,
      "consistency": 6593,
      "multip": 6594,
      "dim": 6595,
      "##ora": 6596,
      "buff": 6597,
      "drop": 6598,
      "enrich": 6599,
      "mba": 6600,
      "exhibit": 6601,
      "comprehend": 6602,
      "calm": 6603,
      "om": 6604,
      "roadm": 6605,
      "##erse": 6606,
      "routes": 6607,
      "geographic": 6608,
      "dol": 6609,
      "##ced": 6610,
      "remo": 6611,
      "arise": 6612,
      "hygiene": 6613,
      "ctg": 6614,
      "lease": 6615,
      "tom": 6616,
      "carpent": 6617,
      "imag": 6618,
      "ray": 6619,
      "##mento": 6620,
      "extension": 6621,
      "gram": 6622,
      "excited": 6623,
      "powerful": 6624,
      "secretary": 6625,
      "utilities": 6626,
      "##ata": 6627,
      "##qual": 6628,
      "##ert": 6629,
      "observe": 6630,
      "evolving": 6631,
      "specializing": 6632,
      "upgrades": 6633,
      "prolonged": 6634,
      "##gan": 6635,
      "##ga": 6636,
      "retailers": 6637,
      "recreation": 6638,
      "gaps": 6639,
      "europe": 6640,
      "acceler": 6641,
      "mad": 6642,
      "apprais": 6643,
      "##edients": 6644,
      "aligned": 6645,
      "budgeting": 6646,
      "emb": 6647,
      "ingredients": 6648,
      "shipments": 6649,
      "falls": 6650,
      "residence": 6651,
      "possib": 6652,
      "regards": 6653,
      "inspired": 6654,
      "##aves": 6655,
      "individualized": 6656,
      "containers": 6657,
      "transpor": 6658,
      "##tu": 6659,
      "navigate": 6660,
      "disclaim": 6661,
      "ict": 6662,
      "john": 6663,
      "reconciliation": 6664,
      "depends": 6665,
      "simply": 6666,
      "repe": 6667,
      "##oft": 6668,
      "haul": 6669,
      "engagements": 6670,
      "##dc": 6671,
      "graph": 6672,
      "dealership": 6673,
      "editing": 6674,
      "treating": 6675,
      "defining": 6676,
      "damage": 6677,
      "##uum": 6678,
      "multitask": 6679,
      "##educ": 6680,
      "grooming": 6681,
      "scholar": 6682,
      "##uff": 6683,
      "##usting": 6684,
      "##84": 6685,
      "considerations": 6686,
      "prototyp": 6687,
      "bio": 6688,
      "guides": 6689,
      "navy": 6690,
      "grown": 6691,
      "young": 6692,
      "collecting": 6693,
      "opm": 6694,
      "situation": 6695,
      "##enty": 6696,
      "bench": 6697,
      "peoples": 6698,
      "credentials": 6699,
      "##wash": 6700,
      "avoid": 6701,
      "ven": 6702,
      "addresses": 6703,
      "carts": 6704,
      "thats": 6705,
      "cm": 6706,
      "##ils": 6707,
      "commissions": 6708,
      "brings": 6709,
      "trainings": 6710,
      "vacuum": 6711,
      "sounds": 6712,
      "trainer": 6713,
      "negative": 6714,
      "##ouses": 6715,
      "54": 6716,
      "focuses": 6717,
      "pursue": 6718,
      "##worth": 6719,
      "mcdon": 6720,
      "minimize": 6721,
      "arkansas": 6722,
      "fall": 6723,
      "subsidiary": 6724,
      "ali": 6725,
      "guaranteed": 6726,
      "##lc": 6727,
      "##ador": 6728,
      "mechanics": 6729,
      "contracting": 6730,
      "unitedhealth": 6731,
      "scen": 6732,
      "authen": 6733,
      "circum": 6734,
      "disclaimer": 6735,
      "ones": 6736,
      "facilitating": 6737,
      "selective": 6738,
      "agofull": 6739,
      "organizes": 6740,
      "##iable": 6741,
      "guarantee": 6742,
      "##get": 6743,
      "##vy": 6744,
      "indo": 6745,
      "##cod": 6746,
      "bread": 6747,
      "psychology": 6748,
      "lunch": 6749,
      "scripts": 6750,
      "##ete": 6751,
      "shape": 6752,
      "referred": 6753,
      "honest": 6754,
      "shr": 6755,
      "counselor": 6756,
      "900": 6757,
      "sens": 6758,
      "arrangements": 6759,
      "##perience": 6760,
      "##den": 6761,
      "scanning": 6762,
      "ble": 6763,
      "structured": 6764,
      "trip": 6765,
      "azure": 6766,
      "fiscal": 6767,
      "tip": 6768,
      "vul": 6769,
      "formul": 6770,
      "kp": 6771,
      "ictap": 6772,
      "manip": 6773,
      "##mat": 6774,
      "golf": 6775,
      "##bucks": 6776,
      "##des": 6777,
      "##tial": 6778,
      "late": 6779,
      "installing": 6780,
      "ceo": 6781,
      "outdoors": 6782,
      "anesthes": 6783,
      "police": 6784,
      "capture": 6785,
      "increased": 6786,
      "##oss": 6787,
      "infection": 6788,
      "shipment": 6789,
      "transcript": 6790,
      "readiness": 6791,
      "53": 6792,
      "##ramento": 6793,
      "##raul": 6794,
      "volt": 6795,
      "hope": 6796,
      "urgent": 6797,
      "ordinance": 6798,
      "da": 6799,
      "former": 6800,
      "flight": 6801,
      "indicate": 6802,
      "##93": 6803,
      "u003": 6804,
      "verifies": 6805,
      "anywhere": 6806,
      "hs": 6807,
      "committees": 6808,
      "elementary": 6809,
      "##outs": 6810,
      "nearest": 6811,
      "alli": 6812,
      "clinicians": 6813,
      "avenue": 6814,
      "hem": 6815,
      "##lear": 6816,
      "ni": 6817,
      "starbucks": 6818,
      "110": 6819,
      "bou": 6820,
      "##eters": 6821,
      "profitable": 6822,
      "minded": 6823,
      "hab": 6824,
      "score": 6825,
      "ui": 6826,
      "accordingly": 6827,
      "eager": 6828,
      "explan": 6829,
      "kids": 6830,
      "distribute": 6831,
      "##hl": 6832,
      "articulate": 6833,
      "hydraul": 6834,
      "really": 6835,
      "accessories": 6836,
      "uphold": 6837,
      "h2": 6838,
      "airport": 6839,
      "pul": 6840,
      "##lex": 6841,
      "arri": 6842,
      "2000": 6843,
      "bid": 6844,
      "centric": 6845,
      "biotech": 6846,
      "fulfilling": 6847,
      "spot": 6848,
      "audio": 6849,
      "##acc": 6850,
      "tractor": 6851,
      "controller": 6852,
      "caus": 6853,
      "ber": 6854,
      "memorial": 6855,
      "##roit": 6856,
      "specimens": 6857,
      "bound": 6858,
      "nations": 6859,
      "directory": 6860,
      "alleg": 6861,
      "relates": 6862,
      "colleges": 6863,
      "##plete": 6864,
      "sacramento": 6865,
      "##uries": 6866,
      "fosters": 6867,
      "ambass": 6868,
      "steel": 6869,
      "filling": 6870,
      "carriers": 6871,
      "ts": 6872,
      "competent": 6873,
      "notification": 6874,
      "purchases": 6875,
      "hamp": 6876,
      "##most": 6877,
      "##works": 6878,
      "litigation": 6879,
      "manufacturers": 6880,
      "immun": 6881,
      "lv": 6882,
      "society": 6883,
      "##burgh": 6884,
      "discussions": 6885,
      "##temps": 6886,
      "attributes": 6887,
      "precision": 6888,
      "overhead": 6889,
      "indicated": 6890,
      "tact": 6891,
      "##outh": 6892,
      "ethnicity": 6893,
      "##times": 6894,
      "##izon": 6895,
      "##orders": 6896,
      "continues": 6897,
      "##olid": 6898,
      "##metry": 6899,
      "custod": 6900,
      "hip": 6901,
      "americans": 6902,
      "authentic": 6903,
      "investments": 6904,
      "lowe": 6905,
      "mcdonal": 6906,
      "traveling": 6907,
      "lig": 6908,
      "idaho": 6909,
      "diseases": 6910,
      "stressful": 6911,
      "relative": 6912,
      "pione": 6913,
      "structural": 6914,
      "lock": 6915,
      "unusual": 6916,
      "concent": 6917,
      "locally": 6918,
      "##prints": 6919,
      "histor": 6920,
      "residency": 6921,
      "registry": 6922,
      "johnson": 6923,
      "enab": 6924,
      "dentist": 6925,
      "substan": 6926,
      "rig": 6927,
      "placed": 6928,
      "browser": 6929,
      "spreadsheets": 6930,
      "accountemps": 6931,
      "##ista": 6932,
      "descriptions": 6933,
      "conviction": 6934,
      "regions": 6935,
      "blvd": 6936,
      "franchisee": 6937,
      "workst": 6938,
      "installations": 6939,
      "tight": 6940,
      "##lers": 6941,
      "##rest": 6942,
      "constit": 6943,
      "legacy": 6944,
      "pitts": 6945,
      "garden": 6946,
      "transparency": 6947,
      "indirect": 6948,
      "measuring": 6949,
      "dies": 6950,
      "diagnose": 6951,
      "epic": 6952,
      "diver": 6953,
      "medicaid": 6954,
      "debu": 6955,
      "vulner": 6956,
      "reasoning": 6957,
      "chase": 6958,
      "##tech": 6959,
      "sending": 6960,
      "verifying": 6961,
      "forth": 6962,
      "precautions": 6963,
      "elim": 6964,
      "subscri": 6965,
      "##kins": 6966,
      "roof": 6967,
      "eight": 6968,
      "perspective": 6969,
      "moment": 6970,
      "receipts": 6971,
      "designers": 6972,
      "##urning": 6973,
      "##ompass": 6974,
      "##inna": 6975,
      "wish": 6976,
      "sav": 6977,
      "recipes": 6978,
      "##agr": 6979,
      "##inity": 6980,
      "lie": 6981,
      "##92": 6982,
      "##62": 6983,
      "circumst": 6984,
      "compliant": 6985,
      "freedom": 6986,
      "removed": 6987,
      "aggr": 6988,
      "incredible": 6989,
      "##person": 6990,
      "##alo": 6991,
      "researching": 6992,
      "##ovascular": 6993,
      "encompass": 6994,
      "ads": 6995,
      "craft": 6996,
      "privile": 6997,
      "incom": 6998,
      "font": 6999,
      "tasking": 7000,
      "workshops": 7001,
      "##ded": 7002,
      "##uish": 7003,
      "##staff": 7004,
      "63": 7005,
      "##alid": 7006,
      "##64": 7007,
      "gri": 7008,
      "strives": 7009,
      "phase": 7010,
      "injuries": 7011,
      "##63": 7012,
      "detroit": 7013,
      "donor": 7014,
      "representing": 7015,
      "governing": 7016,
      "##intend": 7017,
      "homel": 7018,
      "differenti": 7019,
      "dou": 7020,
      "##tinguish": 7021,
      "##arial": 7022,
      "calib": 7023,
      "biology": 7024,
      "destination": 7025,
      "competence": 7026,
      "entries": 7027,
      "corps": 7028,
      "respective": 7029,
      "chap": 7030,
      "accrediting": 7031,
      "neighborhood": 7032,
      "iso": 7033,
      "nonpro": 7034,
      "8am": 7035,
      "newly": 7036,
      "literacy": 7037,
      "nyse": 7038,
      "demonstration": 7039,
      "snow": 7040,
      "##ua": 7041,
      "telemetry": 7042,
      "160": 7043,
      "victim": 7044,
      "spa": 7045,
      "palm": 7046,
      "becoming": 7047,
      "flsa": 7048,
      "##key": 7049,
      "##sipp": 7050,
      "##wc": 7051,
      "linc": 7052,
      "everyday": 7053,
      "directives": 7054,
      "dela": 7055,
      "empath": 7056,
      "##incinna": 7057,
      "hcen": 7058,
      "achieved": 7059,
      "ligt": 7060,
      "lan": 7061,
      "##ologic": 7062,
      "segments": 7063,
      "##ervices": 7064,
      "##ck": 7065,
      "charges": 7066,
      "patience": 7067,
      "tick": 7068,
      "mes": 7069,
      "enterprises": 7070,
      "##incinnati": 7071,
      "##ugh": 7072,
      "words": 7073,
      "administering": 7074,
      "invalid": 7075,
      "##va": 7076,
      "checklist": 7077,
      "##itious": 7078,
      "hawa": 7079,
      "tob": 7080,
      "hca": 7081,
      "attract": 7082,
      "##82": 7083,
      "##books": 7084,
      "yrs": 7085,
      "sometimes": 7086,
      "react": 7087,
      "plano": 7088,
      "700": 7089,
      "##fare": 7090,
      "estimate": 7091,
      "##chool": 7092,
      "finished": 7093,
      "peace": 7094,
      "consolid": 7095,
      "cardiovascular": 7096,
      "##recru": 7097,
      "dav": 7098,
      "richmond": 7099,
      "emergencies": 7100,
      "dishwash": 7101,
      "motion": 7102,
      "milest": 7103,
      "crawl": 7104,
      "portal": 7105,
      "##working": 7106,
      "varies": 7107,
      "##no": 7108,
      "honor": 7109,
      "lincol": 7110,
      "circumstances": 7111,
      "terminal": 7112,
      "seniors": 7113,
      "contractual": 7114,
      "##ums": 7115,
      "constructive": 7116,
      "delaware": 7117,
      "dimension": 7118,
      "mileage": 7119,
      "sle": 7120,
      "whose": 7121,
      "130": 7122,
      "##inars": 7123,
      "##eek": 7124,
      "refres": 7125,
      "suggestions": 7126,
      "nebr": 7127,
      "apps": 7128,
      "paint": 7129,
      "counc": 7130,
      "sig": 7131,
      "enabling": 7132,
      "##venues": 7133,
      "fostering": 7134,
      "entities": 7135,
      "##iration": 7136,
      "cincinnati": 7137,
      "holding": 7138,
      "superintend": 7139,
      "trial": 7140,
      "makers": 7141,
      "prospect": 7142,
      "ledger": 7143,
      "##ara": 7144,
      "b2b": 7145,
      "closed": 7146,
      "subordin": 7147,
      "graduates": 7148,
      "cars": 7149,
      "surge": 7150,
      "implemented": 7151,
      "lap": 7152,
      "jacksonville": 7153,
      "nebraska": 7154,
      "routing": 7155,
      "td": 7156,
      "aggressive": 7157,
      "##aleigh": 7158,
      "appliances": 7159,
      "trailers": 7160,
      "suites": 7161,
      "liqu": 7162,
      "block": 7163,
      "##atal": 7164,
      "periph": 7165,
      "reflects": 7166,
      "##eys": 7167,
      "ambulatory": 7168,
      "vmware": 7169,
      "5pm": 7170,
      "max": 7171,
      "messaging": 7172,
      "northern": 7173,
      "##inf": 7174,
      "peripheral": 7175,
      "lighting": 7176,
      "childhood": 7177,
      "affiliated": 7178,
      "od": 7179,
      "pathologist": 7180,
      "tun": 7181,
      "sample": 7182,
      "object": 7183,
      "labels": 7184,
      "compos": 7185,
      "sustainability": 7186,
      "ea": 7187,
      "##vide": 7188,
      "economics": 7189,
      "devops": 7190,
      "climate": 7191,
      "enrolled": 7192,
      "automob": 7193,
      "handler": 7194,
      "talking": 7195,
      "administrators": 7196,
      "dur": 7197,
      "##amb": 7198,
      "ken": 7199,
      "disclosure": 7200,
      "depot": 7201,
      "wants": 7202,
      "##ica": 7203,
      "##bb": 7204,
      "##keting": 7205,
      "equival": 7206,
      "maine": 7207,
      "tutor": 7208,
      "lawn": 7209,
      "##door": 7210,
      "layout": 7211,
      "enhancing": 7212,
      "distin": 7213,
      "pp": 7214,
      "comments": 7215,
      "nm": 7216,
      "dream": 7217,
      "##59": 7218,
      "chris": 7219,
      "implementations": 7220,
      "born": 7221,
      "stylist": 7222,
      "##this": 7223,
      "##reams": 7224,
      "facts": 7225,
      "band": 7226,
      "fixed": 7227,
      "##dis": 7228,
      "##iat": 7229,
      "planned": 7230,
      "##paid": 7231,
      "##lication": 7232,
      "affiliation": 7233,
      "meat": 7234,
      "locate": 7235,
      "auditor": 7236,
      "embed": 7237,
      "debug": 7238,
      "##itive": 7239,
      "rico": 7240,
      "##nc": 7241,
      "orally": 7242,
      "efficiencies": 7243,
      "warrant": 7244,
      "##hc": 7245,
      "bak": 7246,
      "poly": 7247,
      "insure": 7248,
      "eastern": 7249,
      "##wear": 7250,
      "diesel": 7251,
      "unp": 7252,
      "suggest": 7253,
      "acquire": 7254,
      "healthier": 7255,
      "divisions": 7256,
      "outcome": 7257,
      "had": 7258,
      "3d": 7259,
      "74": 7260,
      "resulting": 7261,
      "99": 7262,
      "fran": 7263,
      "##ka": 7264,
      "diagrams": 7265,
      "##oke": 7266,
      "particularly": 7267,
      "printing": 7268,
      "raleigh": 7269,
      "packing": 7270,
      "advocacy": 7271,
      "##cellaneous": 7272,
      "trouble": 7273,
      "teks": 7274,
      "alongside": 7275,
      "barg": 7276,
      "assures": 7277,
      "##esis": 7278,
      "specification": 7279,
      "got": 7280,
      "publications": 7281,
      "highlight": 7282,
      "celebrate": 7283,
      "lincoln": 7284,
      "hall": 7285,
      "miscellaneous": 7286,
      "prospecting": 7287,
      "prioritization": 7288,
      "twisting": 7289,
      "anyone": 7290,
      "orange": 7291,
      "pittsburgh": 7292,
      "stra": 7293,
      "gear": 7294,
      "hybr": 7295,
      "expansion": 7296,
      "previously": 7297,
      "exter": 7298,
      "shrink": 7299,
      "attractive": 7300,
      "validate": 7301,
      "hipaa": 7302,
      "##ccp": 7303,
      "##69": 7304,
      "exhibits": 7305,
      "larger": 7306,
      "tailored": 7307,
      "tree": 7308,
      "##sities": 7309,
      "janit": 7310,
      "##vision": 7311,
      "drafting": 7312,
      "anti": 7313,
      "enfor": 7314,
      "awes": 7315,
      "banner": 7316,
      "##ext": 7317,
      "##inion": 7318,
      "output": 7319,
      "##utors": 7320,
      "refers": 7321,
      "returning": 7322,
      "rewarded": 7323,
      "##acion": 7324,
      "remaining": 7325,
      "salt": 7326,
      "advising": 7327,
      "square": 7328,
      "modifications": 7329,
      "inventories": 7330,
      "exempl": 7331,
      "neon": 7332,
      "dispos": 7333,
      "peak": 7334,
      "favorite": 7335,
      "convenient": 7336,
      "unsafe": 7337,
      "feat": 7338,
      "producing": 7339,
      "memor": 7340,
      "interpreting": 7341,
      "developments": 7342,
      "glassdoor": 7343,
      "believes": 7344,
      "incomplete": 7345,
      "gap": 7346,
      "tactical": 7347,
      "teksystems": 7348,
      "monster": 7349,
      "escalation": 7350,
      "bakery": 7351,
      "sas": 7352,
      "affiliates": 7353,
      "presents": 7354,
      "fig": 7355,
      "##osting": 7356,
      "mys": 7357,
      "##terno": 7358,
      "##fications": 7359,
      "xml": 7360,
      "signature": 7361,
      "chron": 7362,
      "2009": 7363,
      "##atell": 7364,
      "##itan": 7365,
      "tomorrow": 7366,
      "populations": 7367,
      "standardized": 7368,
      "village": 7369,
      "modules": 7370,
      "blueprints": 7371,
      "names": 7372,
      "regulation": 7373,
      "allowance": 7374,
      "majority": 7375,
      "soph": 7376,
      "queries": 7377,
      "##reek": 7378,
      "belief": 7379,
      "greets": 7380,
      "catal": 7381,
      "cybercod": 7382,
      "##oration": 7383,
      "smith": 7384,
      "ofccp": 7385,
      "gate": 7386,
      "forg": 7387,
      "pilot": 7388,
      "afterno": 7389,
      "spl": 7390,
      "increases": 7391,
      "conclu": 7392,
      "fant": 7393,
      "##usa": 7394,
      "seam": 7395,
      "##ead": 7396,
      "##ounters": 7397,
      "grill": 7398,
      "raw": 7399,
      "opened": 7400,
      "initiates": 7401,
      "explanation": 7402,
      "sv": 7403,
      "plants": 7404,
      "ux": 7405,
      "guiding": 7406,
      "encounters": 7407,
      "adaptable": 7408,
      "treas": 7409,
      "bulk": 7410,
      "tracks": 7411,
      "bargaining": 7412,
      "cultivate": 7413,
      "satell": 7414,
      "spam": 7415,
      "acquired": 7416,
      "exceeds": 7417,
      "download": 7418,
      "stip": 7419,
      "lieu": 7420,
      "##akes": 7421,
      "##turing": 7422,
      "shel": 7423,
      "awesome": 7424,
      "alternate": 7425,
      "##ficial": 7426,
      "##cu": 7427,
      "jew": 7428,
      "ambitious": 7429,
      "credits": 7430,
      "runs": 7431,
      "##ria": 7432,
      "protecting": 7433,
      "vers": 7434,
      "investigate": 7435,
      "fundamental": 7436,
      "diagnostics": 7437,
      "releases": 7438,
      "30am": 7439,
      "nonprofit": 7440,
      "bure": 7441,
      "templ": 7442,
      "sam": 7443,
      "##ady": 7444,
      "##acco": 7445,
      "luxury": 7446,
      "corrections": 7447,
      "##star": 7448,
      "recommending": 7449,
      "seen": 7450,
      "managerial": 7451,
      "cybercoders": 7452,
      "dealer": 7453,
      "##roid": 7454,
      "obst": 7455,
      "accommodate": 7456,
      "council": 7457,
      "willi": 7458,
      "belong": 7459,
      "possession": 7460,
      "##boards": 7461,
      "obtains": 7462,
      "##gal": 7463,
      "##ecare": 7464,
      "php": 7465,
      "privately": 7466,
      "reset": 7467,
      "tab": 7468,
      "warehousing": 7469,
      "prices": 7470,
      "##wh": 7471,
      "##guard": 7472,
      "ci": 7473,
      "books": 7474,
      "##itable": 7475,
      "picture": 7476,
      "reduction": 7477,
      "christ": 7478,
      "judge": 7479,
      "moves": 7480,
      "mitig": 7481,
      "facilitation": 7482,
      "tobacco": 7483,
      "disaster": 7484,
      "factory": 7485,
      "closes": 7486,
      "realize": 7487,
      "sett": 7488,
      "functioning": 7489,
      "##onic": 7490,
      "##nt": 7491,
      "fantastic": 7492,
      "games": 7493,
      "occupations": 7494,
      "sprint": 7495,
      "entr": 7496,
      "sequ": 7497,
      "amen": 7498,
      "fluent": 7499,
      "portion": 7500,
      "ltd": 7501,
      "##vine": 7502,
      "martin": 7503,
      "shoes": 7504,
      "qualities": 7505,
      "tor": 7506,
      "birth": 7507,
      "apartment": 7508,
      "ticket": 7509,
      "##anges": 7510,
      "nuc": 7511,
      "negotiating": 7512,
      "cares": 7513,
      "distinguish": 7514,
      "diversi": 7515,
      "geograph": 7516,
      "publishing": 7517,
      "upcoming": 7518,
      "forces": 7519,
      "allowed": 7520,
      "tb": 7521,
      "##ches": 7522,
      "##must": 7523,
      "##sissipp": 7524,
      "encouraging": 7525,
      "northwest": 7526,
      "##ym": 7527,
      "##rised": 7528,
      "##represent": 7529,
      "gets": 7530,
      "ox": 7531,
      "##urally": 7532,
      "wine": 7533,
      "called": 7534,
      "ascension": 7535,
      "cnc": 7536,
      "contributor": 7537,
      "spent": 7538,
      "improved": 7539,
      "banker": 7540,
      "spiritual": 7541,
      "architects": 7542,
      "hybrid": 7543,
      "coming": 7544,
      "compelling": 7545,
      "intake": 7546,
      "continuity": 7547,
      "subcontract": 7548,
      "assemble": 7549,
      "refresh": 7550,
      "revenues": 7551,
      "educating": 7552,
      "screens": 7553,
      "fte": 7554,
      "engages": 7555,
      "##gg": 7556,
      "##ecu": 7557,
      "probationary": 7558,
      "lob": 7559,
      "scholarship": 7560,
      "credentialing": 7561,
      "substituted": 7562,
      "flatbed": 7563,
      "begins": 7564,
      "funded": 7565,
      "enough": 7566,
      "##shire": 7567,
      "sections": 7568,
      "nd": 7569,
      "sponsor": 7570,
      "creek": 7571,
      "125": 7572,
      "influencing": 7573,
      "##wau": 7574,
      "madison": 7575,
      "##prac": 7576,
      "charter": 7577,
      "mercy": 7578,
      "parale": 7579,
      "youall": 7580,
      "mississipp": 7581,
      "advertised": 7582,
      "##gm": 7583,
      "yard": 7584,
      "tel": 7585,
      "mississippi": 7586,
      "renewal": 7587,
      "louisville": 7588,
      "##fts": 7589,
      "fundra": 7590,
      "painting": 7591,
      "fabrication": 7592,
      "empty": 7593,
      "negotiable": 7594,
      "kept": 7595,
      "matern": 7596,
      "instrumentation": 7597,
      "##kin": 7598,
      "78": 7599,
      "cooperation": 7600,
      "convenience": 7601,
      "prioritizing": 7602,
      "##rought": 7603,
      "gre": 7604,
      "sor": 7605,
      "shares": 7606,
      "dm": 7607,
      "seamless": 7608,
      "balances": 7609,
      "handbook": 7610,
      "yaho": 7611,
      "acuity": 7612,
      "cms": 7613,
      "earnings": 7614,
      "psychiat": 7615,
      "aram": 7616,
      "np": 7617,
      "foodservice": 7618,
      "utilized": 7619,
      "##stone": 7620,
      "yahoo": 7621,
      "interns": 7622,
      "oma": 7623,
      "indicators": 7624,
      "professions": 7625,
      "graphics": 7626,
      "defects": 7627,
      "sears": 7628,
      "##arms": 7629,
      "securing": 7630,
      "reserve": 7631,
      "214": 7632,
      "68": 7633,
      "vaccine": 7634,
      "rs": 7635,
      "llp": 7636,
      "##uation": 7637,
      "amounts": 7638,
      "##ran": 7639,
      "disorders": 7640,
      "communicator": 7641,
      "positioning": 7642,
      "dishes": 7643,
      "forecasts": 7644,
      "57": 7645,
      "univer": 7646,
      "brought": 7647,
      "logic": 7648,
      "72": 7649,
      "hawaii": 7650,
      "punctuality": 7651,
      "satellite": 7652,
      "knows": 7653,
      "arlington": 7654,
      "hp": 7655,
      "140": 7656,
      "washing": 7657,
      "optical": 7658,
      "conversion": 7659,
      "##erto": 7660,
      "paycheck": 7661,
      "wild": 7662,
      "para": 7663,
      "##fies": 7664,
      "pros": 7665,
      "##aba": 7666,
      "theft": 7667,
      "etl": 7668,
      "registrations": 7669,
      "proposed": 7670,
      "superintendent": 7671,
      "##match": 7672,
      "##bel": 7673,
      "adverse": 7674,
      "picking": 7675,
      "##asse": 7676,
      "faq": 7677,
      "##vals": 7678,
      "nh": 7679,
      "verifiable": 7680,
      "springfield": 7681,
      "android": 7682,
      "illust": 7683,
      "ry": 7684,
      "aramark": 7685,
      "universities": 7686,
      "factor": 7687,
      "exterior": 7688,
      "welfare": 7689,
      "##rise": 7690,
      "unified": 7691,
      "stret": 7692,
      "deemed": 7693,
      "styles": 7694,
      "##ived": 7695,
      "reps": 7696,
      "##waukee": 7697,
      "processed": 7698,
      "##alink": 7699,
      "##wy": 7700,
      "beds": 7701,
      "estimating": 7702,
      "straight": 7703,
      "stro": 7704,
      "##rp": 7705,
      "omaha": 7706,
      "bookkeeping": 7707,
      "hart": 7708,
      "constr": 7709,
      "approve": 7710,
      "##ox": 7711,
      "impacts": 7712,
      "analytic": 7713,
      "minute": 7714,
      "computerized": 7715,
      "rub": 7716,
      "##usion": 7717,
      "screenings": 7718,
      "##eman": 7719,
      "77": 7720,
      "faster": 7721,
      "arc": 7722,
      "kforce": 7723,
      "##51": 7724,
      "98": 7725,
      "##fa": 7726,
      "##tian": 7727,
      "motivating": 7728,
      "instant": 7729,
      "munic": 7730,
      "##ublic": 7731,
      "alliance": 7732,
      "##fc": 7733,
      "happen": 7734,
      "thru": 7735,
      "surveill": 7736,
      "ai": 7737,
      "passing": 7738,
      "banks": 7739,
      "##anth": 7740,
      "aids": 7741,
      "bell": 7742,
      "##sist": 7743,
      "comparable": 7744,
      "##phone": 7745,
      "##ipal": 7746,
      "ambassador": 7747,
      "##mph": 7748,
      "paul": 7749,
      "visiting": 7750,
      "shelf": 7751,
      "equivalency": 7752,
      "modification": 7753,
      "##001": 7754,
      "exists": 7755,
      "eb": 7756,
      "fingers": 7757,
      "inspector": 7758,
      "sophistic": 7759,
      "1999": 7760,
      "##essor": 7761,
      "sher": 7762,
      "complet": 7763,
      "##rn": 7764,
      "postingid": 7765,
      "patro": 7766,
      "articles": 7767,
      "amenities": 7768,
      "border": 7769,
      "workflows": 7770,
      "transforming": 7771,
      "abre": 7772,
      "nar": 7773,
      "phlebotomy": 7774,
      "scalable": 7775,
      "quantity": 7776,
      "putting": 7777,
      "signage": 7778,
      "submissions": 7779,
      "planner": 7780,
      "permalink": 7781,
      "##div": 7782,
      "db": 7783,
      "abreast": 7784,
      "dir": 7785,
      "savvy": 7786,
      "bacheloras": 7787,
      "showing": 7788,
      "recreational": 7789,
      "cybers": 7790,
      "ppe": 7791,
      "lvn": 7792,
      "puerto": 7793,
      "autoc": 7794,
      "municipal": 7795,
      "outsourcing": 7796,
      "alone": 7797,
      "hydraulic": 7798,
      "##adian": 7799,
      "surveillance": 7800,
      "excess": 7801,
      "logging": 7802,
      "exact": 7803,
      "twist": 7804,
      "##ring": 7805,
      "bureau": 7806,
      "discussed": 7807,
      "relational": 7808,
      "barri": 7809,
      "lots": 7810,
      "automobile": 7811,
      "wanted": 7812,
      "##bury": 7813,
      "integrating": 7814,
      "limits": 7815,
      "##exp": 7816,
      "##vering": 7817,
      "mold": 7818,
      "coursework": 7819,
      "##gor": 7820,
      "startup": 7821,
      "hud": 7822,
      "mention": 7823,
      "escalate": 7824,
      "##organ": 7825,
      "stretch": 7826,
      "ecomm": 7827,
      "native": 7828,
      "popular": 7829,
      "norm": 7830,
      "exercises": 7831,
      "skin": 7832,
      "##iction": 7833,
      "chronic": 7834,
      "mining": 7835,
      "advertisement": 7836,
      "repairing": 7837,
      "rt": 7838,
      "chip": 7839,
      "externally": 7840,
      "lod": 7841,
      "inspiring": 7842,
      "pens": 7843,
      "stockroom": 7844,
      "embedded": 7845,
      "healing": 7846,
      "extr": 7847,
      "##bro": 7848,
      "assume": 7849,
      "concurr": 7850,
      "uc": 7851,
      "##inks": 7852,
      "fitting": 7853,
      "##cer": 7854,
      "artist": 7855,
      "##bing": 7856,
      "##lation": 7857,
      "360": 7858,
      "milwaukee": 7859,
      "exception": 7860,
      "grove": 7861,
      "##ppers": 7862,
      "assumes": 7863,
      "buying": 7864,
      "continuum": 7865,
      "connects": 7866,
      "scot": 7867,
      "compare": 7868,
      "##ecutive": 7869,
      "stakeholder": 7870,
      "wet": 7871,
      "ahead": 7872,
      "batch": 7873,
      "roadmap": 7874,
      "athletic": 7875,
      "##eteam": 7876,
      "century": 7877,
      "##experience": 7878,
      "canadian": 7879,
      "replenishment": 7880,
      "ultimately": 7881,
      "pension": 7882,
      "pwc": 7883,
      "delight": 7884,
      "nuclear": 7885,
      "alternatives": 7886,
      "dont": 7887,
      "##hop": 7888,
      "highway": 7889,
      "##enn": 7890,
      "fundament": 7891,
      "ice": 7892,
      "immigration": 7893,
      "##57": 7894,
      "printer": 7895,
      "##uter": 7896,
      "milestones": 7897,
      "##life": 7898,
      "##ervation": 7899,
      "alum": 7900,
      "consists": 7901,
      "##itas": 7902,
      "ecommerce": 7903,
      "concern": 7904,
      "revol": 7905,
      "potentially": 7906,
      "architectures": 7907,
      "adding": 7908,
      "##unc": 7909,
      "##illary": 7910,
      "gaming": 7911,
      "unrest": 7912,
      "##xx": 7913,
      "trading": 7914,
      "spreadsheet": 7915,
      "researches": 7916,
      "##ricted": 7917,
      "##spec": 7918,
      "67": 7919,
      "##wr": 7920,
      "##reed": 7921,
      "##rate": 7922,
      "completely": 7923,
      "##power": 7924,
      "complaint": 7925,
      "attentive": 7926,
      "ds": 7927,
      "##ateral": 7928,
      "unrestricted": 7929,
      "cu": 7930,
      "interprets": 7931,
      "fundraising": 7932,
      "##represented": 7933,
      "innovate": 7934,
      "##cor": 7935,
      "##urring": 7936,
      "adaptability": 7937,
      "competing": 7938,
      "nap": 7939,
      "retaining": 7940,
      "##metic": 7941,
      "pals": 7942,
      "##beat": 7943,
      "##enced": 7944,
      "thrives": 7945,
      "##men": 7946,
      "comprised": 7947,
      "completeness": 7948,
      "yearly": 7949,
      "pathology": 7950,
      "legis": 7951,
      "sigma": 7952,
      "recognizing": 7953,
      "paying": 7954,
      "pand": 7955,
      "observations": 7956,
      "ultr": 7957,
      "housekeeper": 7958,
      "summar": 7959,
      "##ectors": 7960,
      "vascular": 7961,
      "saas": 7962,
      "nice": 7963,
      "j2": 7964,
      "conceptual": 7965,
      "che": 7966,
      "empowered": 7967,
      "consecutive": 7968,
      "877": 7969,
      "forest": 7970,
      "defic": 7971,
      "##lor": 7972,
      "##ingham": 7973,
      "##ecurity": 7974,
      "innovations": 7975,
      "##ounter": 7976,
      "paralegal": 7977,
      "colleague": 7978,
      "enhanced": 7979,
      "chair": 7980,
      "bloom": 7981,
      "jul": 7982,
      "drugs": 7983,
      "retrieve": 7984,
      "schematics": 7985,
      "sharp": 7986,
      "##inder": 7987,
      "emr": 7988,
      "batter": 7989,
      "prime": 7990,
      "accepts": 7991,
      "seminars": 7992,
      "gp": 7993,
      "telecommute": 7994,
      "mall": 7995,
      "ash": 7996,
      "remember": 7997,
      "##page": 7998,
      "attorneys": 7999,
      "##tious": 8000,
      "massage": 8001,
      "dict": 8002,
      "published": 8003,
      "92": 8004,
      "61": 8005,
      "##wal": 8006,
      "reported": 8007,
      "multidisciplinary": 8008,
      "##pre": 8009,
      "deals": 8010,
      "##ads": 8011,
      "walmart": 8012,
      "mir": 8013,
      "sophisticated": 8014,
      "stages": 8015,
      "##attan": 8016,
      "reconcile": 8017,
      "rare": 8018,
      "courtes": 8019,
      "quot": 8020,
      "specializes": 8021,
      "wall": 8022,
      "phd": 8023,
      "casino": 8024,
      "upper": 8025,
      "television": 8026,
      "afternoon": 8027,
      "ju": 8028,
      "encounter": 8029,
      "bull": 8030,
      "jobsh": 8031,
      "doctors": 8032,
      "percentage": 8033,
      "alth": 8034,
      "roch": 8035,
      "fumes": 8036,
      "armed": 8037,
      "prohibits": 8038,
      "considerable": 8039,
      "childcare": 8040,
      "although": 8041,
      "maneu": 8042,
      "##post": 8043,
      "##eds": 8044,
      "instructed": 8045,
      "animals": 8046,
      "spoken": 8047,
      "neonatal": 8048,
      "youtu": 8049,
      "cancel": 8050,
      "constru": 8051,
      "enters": 8052,
      "solver": 8053,
      "ctap": 8054,
      "##ensus": 8055,
      "maximizing": 8056,
      "##ront": 8057,
      "##eston": 8058,
      "demonstrations": 8059,
      "##part": 8060,
      "plays": 8061,
      "viewed": 8062,
      "geriatric": 8063,
      "constraints": 8064,
      "fulltime": 8065,
      "hyper": 8066,
      "governmental": 8067,
      "sops": 8068,
      "practic": 8069,
      "staying": 8070,
      "365": 8071,
      "urban": 8072,
      "traba": 8073,
      "##itary": 8074,
      "tuc": 8075,
      "001": 8076,
      "burlington": 8077,
      "dog": 8078,
      "distributor": 8079,
      "matches": 8080,
      "introduction": 8081,
      "silver": 8082,
      "##heim": 8083,
      "compile": 8084,
      "sterile": 8085,
      "dell": 8086,
      "##orized": 8087,
      "##iet": 8088,
      "montana": 8089,
      "compact": 8090,
      "construed": 8091,
      "pursuant": 8092,
      "##elig": 8093,
      "reconciliations": 8094,
      "scr": 8095,
      "weare": 8096,
      "bow": 8097,
      "officeteam": 8098,
      "parameters": 8099,
      "dept": 8100,
      "transparent": 8101,
      "stroke": 8102,
      "keyboard": 8103,
      "views": 8104,
      "slp": 8105,
      "endorsements": 8106,
      "chi": 8107,
      "routinely": 8108,
      "64": 8109,
      "##ij": 8110,
      "idea": 8111,
      "##aton": 8112,
      "##arch": 8113,
      "profiles": 8114,
      "parks": 8115,
      "mitigation": 8116,
      "recommendation": 8117,
      "trays": 8118,
      "##tiqu": 8119,
      "rol": 8120,
      "programmer": 8121,
      "tenure": 8122,
      "scientists": 8123,
      "mentors": 8124,
      "mapping": 8125,
      "gyn": 8126,
      "lifts": 8127,
      "endorsement": 8128,
      "employing": 8129,
      "##ologists": 8130,
      "alloc": 8131,
      "grants": 8132,
      "ideally": 8133,
      "zone": 8134,
      "pursuing": 8135,
      "presented": 8136,
      "draft": 8137,
      "##pers": 8138,
      "vent": 8139,
      "##wick": 8140,
      "##specified": 8141,
      "walg": 8142,
      "pin": 8143,
      "passeng": 8144,
      "inspects": 8145,
      "restrictions": 8146,
      "##strong": 8147,
      "unspecified": 8148,
      "elimin": 8149,
      "midwest": 8150,
      "relation": 8151,
      "allocation": 8152,
      "utens": 8153,
      "stored": 8154,
      "container": 8155,
      "agriculture": 8156,
      "weve": 8157,
      "securities": 8158,
      "##burn": 8159,
      "seeing": 8160,
      "irvine": 8161,
      "equi": 8162,
      "sinc": 8163,
      "tradem": 8164,
      "almost": 8165,
      "##ura": 8166,
      "##atever": 8167,
      "rapids": 8168,
      "subtr": 8169,
      "##acon": 8170,
      "proudly": 8171,
      "fda": 8172,
      "ambig": 8173,
      "conversations": 8174,
      "sensitivity": 8175,
      "##sequ": 8176,
      "vacations": 8177,
      "coordinators": 8178,
      "engines": 8179,
      "notch": 8180,
      "locating": 8181,
      "expend": 8182,
      "internationally": 8183,
      "thoroughly": 8184,
      "##categ": 8185,
      "76": 8186,
      "donors": 8187,
      "verizon": 8188,
      "drill": 8189,
      "referring": 8190,
      "han": 8191,
      "##ik": 8192,
      "##ians": 8193,
      "maps": 8194,
      "##recruiter": 8195,
      "##ims": 8196,
      "republic": 8197,
      "adp": 8198,
      "arrest": 8199,
      "unpaid": 8200,
      "courtesy": 8201,
      "##iosity": 8202,
      "plas": 8203,
      "##cl": 8204,
      "upgrade": 8205,
      "faith": 8206,
      "##icon": 8207,
      "scru": 8208,
      "theory": 8209,
      "cant": 8210,
      "##assist": 8211,
      "remedi": 8212,
      "ax": 8213,
      "cooks": 8214,
      "curiosity": 8215,
      "revision": 8216,
      "180": 8217,
      "tough": 8218,
      "variables": 8219,
      "simulation": 8220,
      "continual": 8221,
      "robo": 8222,
      "sizes": 8223,
      "though": 8224,
      "walls": 8225,
      "diversified": 8226,
      "extend": 8227,
      "educator": 8228,
      "hartford": 8229,
      "##sier": 8230,
      "posts": 8231,
      "controlling": 8232,
      "labs": 8233,
      "treated": 8234,
      "generated": 8235,
      "dhs": 8236,
      "surface": 8237,
      "chur": 8238,
      "circuit": 8239,
      "logical": 8240,
      "##gorith": 8241,
      "counting": 8242,
      "fundamentals": 8243,
      "hit": 8244,
      "formats": 8245,
      "uniforms": 8246,
      "whatever": 8247,
      "deserve": 8248,
      "interru": 8249,
      "dispens": 8250,
      "algorith": 8251,
      "sep": 8252,
      "##rt": 8253,
      "polish": 8254,
      "calculator": 8255,
      "##ype": 8256,
      "##ball": 8257,
      "##rc": 8258,
      "fluid": 8259,
      "##ets": 8260,
      "##ario": 8261,
      "##sitions": 8262,
      "lex": 8263,
      "holdings": 8264,
      "##gl": 8265,
      "resourceful": 8266,
      "##ysi": 8267,
      "utensils": 8268,
      "embraces": 8269,
      "islands": 8270,
      "strengthen": 8271,
      "##lyn": 8272,
      "possibilities": 8273,
      "uk": 8274,
      "appreciation": 8275,
      "##law": 8276,
      "adoles": 8277,
      "ol": 8278,
      "##position": 8279,
      "crow": 8280,
      "players": 8281,
      "collateral": 8282,
      "sanitary": 8283,
      "strategically": 8284,
      "scotts": 8285,
      "ancillary": 8286,
      "##eligible": 8287,
      "##anthrop": 8288,
      "paste": 8289,
      "recipient": 8290,
      "malf": 8291,
      "treasury": 8292,
      "therapies": 8293,
      "waist": 8294,
      "context": 8295,
      "barriers": 8296,
      "dock": 8297,
      "accomplishments": 8298,
      "enhancement": 8299,
      "autonomous": 8300,
      "conditioning": 8301,
      "invoice": 8302,
      "philanthrop": 8303,
      "opens": 8304,
      "ops": 8305,
      "rochester": 8306,
      "covering": 8307,
      "##pmg": 8308,
      "catholic": 8309,
      "loud": 8310,
      "plenty": 8311,
      "distributes": 8312,
      "pf": 8313,
      "sar": 8314,
      "##56": 8315,
      "holds": 8316,
      "##inal": 8317,
      "##itage": 8318,
      "delegated": 8319,
      "contains": 8320,
      "urgently": 8321,
      "##isd": 8322,
      "harm": 8323,
      "considers": 8324,
      "empowering": 8325,
      "demanding": 8326,
      "advancing": 8327,
      "stewards": 8328,
      "learner": 8329,
      "mcdonald": 8330,
      "marine": 8331,
      "tooling": 8332,
      "anesthesia": 8333,
      "practitioners": 8334,
      "trips": 8335,
      "7am": 8336,
      "negotiations": 8337,
      "conclusions": 8338,
      "##fast": 8339,
      "##uns": 8340,
      "sorting": 8341,
      "angular": 8342,
      "automatically": 8343,
      "random": 8344,
      "entity": 8345,
      "adjustment": 8346,
      "crouching": 8347,
      "allegis": 8348,
      "##ming": 8349,
      "##nders": 8350,
      "heating": 8351,
      "##more": 8352,
      "rns": 8353,
      "750": 8354,
      "soliant": 8355,
      "damaged": 8356,
      "participant": 8357,
      "corporations": 8358,
      "visible": 8359,
      "##edent": 8360,
      "corner": 8361,
      "forbes": 8362,
      "electro": 8363,
      "hampshire": 8364,
      "allowing": 8365,
      "weekday": 8366,
      "rely": 8367,
      "processor": 8368,
      "solicit": 8369,
      "appreciate": 8370,
      "piv": 8371,
      "anticipated": 8372,
      "stays": 8373,
      "sold": 8374,
      "##enever": 8375,
      "oce": 8376,
      "opinion": 8377,
      "dietary": 8378,
      "ineligible": 8379,
      "ranch": 8380,
      "wonder": 8381,
      "whenever": 8382,
      "nan": 8383,
      "eeoc": 8384,
      "##54": 8385,
      "verified": 8386,
      "jewel": 8387,
      "authorities": 8388,
      "sanitizing": 8389,
      "vibrant": 8390,
      "h1": 8391,
      "observation": 8392,
      "traveler": 8393,
      "tactics": 8394,
      "##mend": 8395,
      "bad": 8396,
      "elder": 8397,
      "builder": 8398,
      "submits": 8399,
      "paths": 8400,
      "boarding": 8401,
      "intermitt": 8402,
      "physics": 8403,
      "conversation": 8404,
      "##ticals": 8405,
      "firew": 8406,
      "qc": 8407,
      "knowing": 8408,
      "grasping": 8409,
      "installs": 8410,
      "biom": 8411,
      "stocks": 8412,
      "##itions": 8413,
      "franchised": 8414,
      "coc": 8415,
      "##lications": 8416,
      "rather": 8417,
      "##ele": 8418,
      "gall": 8419,
      "rose": 8420,
      "obligations": 8421,
      "cashiers": 8422,
      "fiber": 8423,
      "writer": 8424,
      "reservations": 8425,
      "hunting": 8426,
      "autocad": 8427,
      "revolution": 8428,
      "consults": 8429,
      "71": 8430,
      "solely": 8431,
      "muse": 8432,
      "84": 8433,
      "wid": 8434,
      "percentages": 8435,
      "wiring": 8436,
      "genesis": 8437,
      "##idad": 8438,
      "equipped": 8439,
      "gross": 8440,
      "tul": 8441,
      "adec": 8442,
      "##nology": 8443,
      "jobshark": 8444,
      "aur": 8445,
      "2007": 8446,
      "missions": 8447,
      "territories": 8448,
      "affiliate": 8449,
      "rati": 8450,
      "ling": 8451,
      "keys": 8452,
      "visibility": 8453,
      "##quet": 8454,
      "caf": 8455,
      "patch": 8456,
      "baby": 8457,
      "metrop": 8458,
      "incon": 8459,
      "##inar": 8460,
      "sells": 8461,
      "copies": 8462,
      "examinations": 8463,
      "##stream": 8464,
      "calculate": 8465,
      "privileges": 8466,
      "rule": 8467,
      "##mendous": 8468,
      "##iencies": 8469,
      "thom": 8470,
      "neut": 8471,
      "agreed": 8472,
      "matched": 8473,
      "##opy": 8474,
      "kpmg": 8475,
      "brid": 8476,
      "bold": 8477,
      "grammar": 8478,
      "subcontractors": 8479,
      "assigning": 8480,
      "##mer": 8481,
      "tremendous": 8482,
      "triage": 8483,
      "correctional": 8484,
      "carpentry": 8485,
      "necessarily": 8486,
      "observes": 8487,
      "cafe": 8488,
      "radiation": 8489,
      "##ocial": 8490,
      "##bank": 8491,
      "##matched": 8492,
      "newborn": 8493,
      "nord": 8494,
      "ri": 8495,
      "memos": 8496,
      "pacu": 8497,
      "jeff": 8498,
      "transcri": 8499,
      "videos": 8500,
      "##pan": 8501,
      "buffalo": 8502,
      "remediation": 8503,
      "vets": 8504,
      "heritage": 8505,
      "unmatched": 8506,
      "##mphis": 8507,
      "moderately": 8508,
      "aj": 8509,
      "nicu": 8510,
      "ka": 8511,
      "##ifies": 8512,
      "labeling": 8513,
      "investors": 8514,
      "##semin": 8515,
      "liber": 8516,
      "registers": 8517,
      "preschool": 8518,
      "boundaries": 8519,
      "hcm": 8520,
      "saturdays": 8521,
      "##mes": 8522,
      "disclose": 8523,
      "measurements": 8524,
      "##js": 8525,
      "##car": 8526,
      "accomplished": 8527,
      "complying": 8528,
      "##pace": 8529,
      "williams": 8530,
      "suitable": 8531,
      "##enton": 8532,
      "acquisitions": 8533,
      "fs": 8534,
      "producer": 8535,
      "biological": 8536,
      "aides": 8537,
      "generates": 8538,
      "attached": 8539,
      "##bt": 8540,
      "amend": 8541,
      "##enter": 8542,
      "forgot": 8543,
      "##ett": 8544,
      "sorry": 8545,
      "walgreens": 8546,
      "procedural": 8547,
      "financing": 8548,
      "inbox": 8549,
      "##will": 8550,
      "indoor": 8551,
      "aspect": 8552,
      "featured": 8553,
      "##perform": 8554,
      "dissemin": 8555,
      "excite": 8556,
      "##marks": 8557,
      "##cross": 8558,
      "##ayment": 8559,
      "gym": 8560,
      "consent": 8561,
      "##employment": 8562,
      "mos": 8563,
      "cfr": 8564,
      "row": 8565,
      "pallets": 8566,
      "##ulu": 8567,
      "whats": 8568,
      "templates": 8569,
      "conflicts": 8570,
      "##ira": 8571,
      "posters": 8572,
      "cooperatively": 8573,
      "wound": 8574,
      "instead": 8575,
      "exams": 8576,
      "rain": 8577,
      "hello": 8578,
      "alph": 8579,
      "warranty": 8580,
      "neutral": 8581,
      "professor": 8582,
      "##ferred": 8583,
      "##win": 8584,
      "keen": 8585,
      "sectors": 8586,
      "mentorship": 8587,
      "##ius": 8588,
      "baker": 8589,
      "refu": 8590,
      "raise": 8591,
      "printable": 8592,
      "agend": 8593,
      "peoplesoft": 8594,
      "asia": 8595,
      "harris": 8596,
      "##table": 8597,
      "cardiology": 8598,
      "branches": 8599,
      "shou": 8600,
      "ecos": 8601,
      "lessons": 8602,
      "returned": 8603,
      "squatting": 8604,
      "##avail": 8605,
      "##oms": 8606,
      "satisfied": 8607,
      "cybersecurity": 8608,
      "dism": 8609,
      "##etail": 8610,
      "##ola": 8611,
      "planet": 8612,
      "tuning": 8613,
      "exer": 8614,
      "tucson": 8615,
      "crafts": 8616,
      "huge": 8617,
      "cis": 8618,
      "subt": 8619,
      "recyc": 8620,
      "vermont": 8621,
      "jur": 8622,
      "church": 8623,
      "null": 8624,
      "aurora": 8625,
      "##ala": 8626,
      "synthes": 8627,
      "export": 8628,
      "preview": 8629,
      "dishwasher": 8630,
      "suitability": 8631,
      "ordered": 8632,
      "sized": 8633,
      "##wich": 8634,
      "siem": 8635,
      "##held": 8636,
      "culturally": 8637,
      "sys": 8638,
      "migration": 8639,
      "ziprecruiter": 8640,
      "actionable": 8641,
      "##irmingham": 8642,
      "simpl": 8643,
      "##antic": 8644,
      "youtube": 8645,
      "memphis": 8646,
      "##odies": 8647,
      "memory": 8648,
      "bills": 8649,
      "counties": 8650,
      "aust": 8651,
      "ford": 8652,
      "automatic": 8653,
      "plastic": 8654,
      "birmingham": 8655,
      "specialize": 8656,
      "quotes": 8657,
      "##58": 8658,
      "sporting": 8659,
      "investing": 8660,
      "##acles": 8661,
      "motors": 8662,
      "tweet": 8663,
      "##olitan": 8664,
      "mig": 8665,
      "breakdown": 8666,
      "jpm": 8667,
      "disru": 8668,
      "crime": 8669,
      "loves": 8670,
      "carries": 8671,
      "1990": 8672,
      "shoulder": 8673,
      "trials": 8674,
      "62": 8675,
      "thinker": 8676,
      "sampling": 8677,
      "50lbs": 8678,
      "deploying": 8679,
      "itself": 8680,
      "##group": 8681,
      "##monary": 8682,
      "stipend": 8683,
      "hazmat": 8684,
      "janitorial": 8685,
      "##ung": 8686,
      "tags": 8687,
      "##aving": 8688,
      "##rel": 8689,
      "precise": 8690,
      "deduc": 8691,
      "clothing": 8692,
      "assemblies": 8693,
      "##crimination": 8694,
      "##mouth": 8695,
      "##anger": 8696,
      "lakes": 8697,
      "##owers": 8698,
      "##chester": 8699,
      "##puts": 8700,
      "ana": 8701,
      "buyer": 8702,
      "prescriptions": 8703,
      "removing": 8704,
      "luc": 8705,
      "hung": 8706,
      "visio": 8707,
      "steam": 8708,
      "lege": 8709,
      "underwr": 8710,
      "nondis": 8711,
      "alex": 8712,
      "##aco": 8713,
      "dean": 8714,
      "##mentary": 8715,
      "notified": 8716,
      "##fession": 8717,
      "illustr": 8718,
      "china": 8719,
      "winter": 8720,
      "claiming": 8721,
      "ios": 8722,
      "merchant": 8723,
      "##quo": 8724,
      "fer": 8725,
      "flows": 8726,
      "cond": 8727,
      "incumbents": 8728,
      "##osocial": 8729,
      "nyc": 8730,
      "aqu": 8731,
      "normally": 8732,
      "banquet": 8733,
      "##rology": 8734,
      "instructors": 8735,
      "dan": 8736,
      "alarm": 8737,
      "fm": 8738,
      "##veness": 8739,
      "combine": 8740,
      "disposal": 8741,
      "allen": 8742,
      "weights": 8743,
      "describes": 8744,
      "guided": 8745,
      "##shore": 8746,
      "homeland": 8747,
      "writes": 8748,
      "pivot": 8749,
      "wat": 8750,
      "decor": 8751,
      "thriving": 8752,
      "defines": 8753,
      "substantial": 8754,
      "earth": 8755,
      "rhode": 8756,
      "disinf": 8757,
      "wyoming": 8758,
      "configure": 8759,
      "notifies": 8760,
      "modified": 8761,
      "sdlc": 8762,
      "ase": 8763,
      "mother": 8764,
      "wan": 8765,
      "penn": 8766,
      "##ault": 8767,
      "relay": 8768,
      "charl": 8769,
      "##pc": 8770,
      "owns": 8771,
      "etiqu": 8772,
      "accelerate": 8773,
      "adop": 8774,
      "requisitions": 8775,
      "mel": 8776,
      "exceptions": 8777,
      "##oga": 8778,
      "##fits": 8779,
      "##zz": 8780,
      "##daq": 8781,
      "beliefs": 8782,
      "panel": 8783,
      "hub": 8784,
      "pumps": 8785,
      "refrigeration": 8786,
      "cognitive": 8787,
      "cleaner": 8788,
      "foref": 8789,
      "97": 8790,
      "internships": 8791,
      "grades": 8792,
      "nasdaq": 8793,
      "apex": 8794,
      "coh": 8795,
      "northeast": 8796,
      "manpower": 8797,
      "mvr": 8798,
      "signal": 8799,
      "distancing": 8800,
      "chat": 8801,
      "plc": 8802,
      "fea": 8803,
      "newslet": 8804,
      "expiration": 8805,
      "necessity": 8806,
      "spouse": 8807,
      "contacting": 8808,
      "impression": 8809,
      "alter": 8810,
      "elite": 8811,
      "##lud": 8812,
      "##ayette": 8813,
      "##text": 8814,
      "##appro": 8815,
      "leaves": 8816,
      "welcomes": 8817,
      "expanded": 8818,
      "sharethis": 8819,
      "89": 8820,
      "##available": 8821,
      "aspx": 8822,
      "git": 8823,
      "possibility": 8824,
      "explaining": 8825,
      "forefront": 8826,
      "dba": 8827,
      "ocean": 8828,
      "fid": 8829,
      "##birth": 8830,
      "##idental": 8831,
      "puts": 8832,
      "administered": 8833,
      "##oria": 8834,
      "##ache": 8835,
      "seal": 8836,
      "sunrise": 8837,
      "salem": 8838,
      "ranking": 8839,
      "ministry": 8840,
      "oc": 8841,
      "images": 8842,
      "easier": 8843,
      "wherever": 8844,
      "empathy": 8845,
      "beneficial": 8846,
      "orthopedic": 8847,
      "shell": 8848,
      "individually": 8849,
      "missing": 8850,
      "##atories": 8851,
      "timel": 8852,
      "##52": 8853,
      "laptop": 8854,
      "##enal": 8855,
      "switches": 8856,
      "functionally": 8857,
      "diagnoses": 8858,
      "etiquette": 8859,
      "detect": 8860,
      "mesa": 8861,
      "1998": 8862,
      "psychosocial": 8863,
      "tourism": 8864,
      "sket": 8865,
      "doctoral": 8866,
      "##aaaa": 8867,
      "burn": 8868,
      "ryder": 8869,
      "childbirth": 8870,
      "looks": 8871,
      "exemplary": 8872,
      "gra": 8873,
      "query": 8874,
      "nondiscrimination": 8875,
      "apis": 8876,
      "educates": 8877,
      "##name": 8878,
      "pioneer": 8879,
      "separate": 8880,
      "pest": 8881,
      "psychological": 8882,
      "##strom": 8883,
      "fro": 8884,
      "breaks": 8885,
      "amer": 8886,
      "##week": 8887,
      "divide": 8888,
      "##perative": 8889,
      "##query": 8890,
      "clinician": 8891,
      "disposition": 8892,
      "repeat": 8893,
      "marsh": 8894,
      "##feed": 8895,
      "casualty": 8896,
      "j2ee": 8897,
      "forklifts": 8898,
      "discounted": 8899,
      "locum": 8900,
      "executed": 8901,
      "restrooms": 8902,
      "him": 8903,
      "onto": 8904,
      "##plant": 8905,
      "linen": 8906,
      "adecco": 8907,
      "davita": 8908,
      "##atics": 8909,
      "delic": 8910,
      "cit": 8911,
      "metropolitan": 8912,
      "infec": 8913,
      "broader": 8914,
      "##0000": 8915,
      "permitted": 8916,
      "technological": 8917,
      "##build": 8918,
      "catalog": 8919,
      "regulated": 8920,
      "instrument": 8921,
      "edt": 8922,
      "infectious": 8923,
      "motions": 8924,
      "limitations": 8925,
      "pne": 8926,
      "trinity": 8927,
      "fluency": 8928,
      "jr": 8929,
      "connectivity": 8930,
      "##regular": 8931,
      "##gram": 8932,
      "swim": 8933,
      "subtract": 8934,
      "telecom": 8935,
      "rentals": 8936,
      "constitu": 8937,
      "pipe": 8938,
      "custodial": 8939,
      "highlighted": 8940,
      "visually": 8941,
      "inspires": 8942,
      "ultimate": 8943,
      "distributing": 8944,
      "pursuit": 8945,
      "sweeping": 8946,
      "anything": 8947,
      "float": 8948,
      "intelligent": 8949,
      "filter": 8950,
      "5000": 8951,
      "aha": 8952,
      "prioritizes": 8953,
      "tro": 8954,
      "endless": 8955,
      "##enders": 8956,
      "achieves": 8957,
      "##ann": 8958,
      "stewardship": 8959,
      "appraisal": 8960,
      "##53": 8961,
      "electronically": 8962,
      "reliably": 8963,
      "detection": 8964,
      "ultras": 8965,
      "##ycles": 8966,
      "sustaining": 8967,
      "mornings": 8968,
      "ramp": 8969,
      "brookdale": 8970,
      "pulled": 8971,
      "patr": 8972,
      "transit": 8973,
      "##xo": 8974,
      "optimum": 8975,
      "debt": 8976,
      "enabled": 8977,
      "effects": 8978,
      "##greg": 8979,
      "lesson": 8980,
      "considering": 8981,
      "mitigate": 8982,
      "##bar": 8983,
      "death": 8984,
      "maneuver": 8985,
      "swift": 8986,
      "shut": 8987,
      "subordinates": 8988,
      "officials": 8989,
      "roe": 8990,
      "fis": 8991,
      "notices": 8992,
      "salar": 8993,
      "lifetime": 8994,
      "##rens": 8995,
      "advantages": 8996,
      "actu": 8997,
      "yield": 8998,
      "sleep": 8999,
      "importantly": 9000,
      "deficiencies": 9001,
      "interim": 9002,
      "separation": 9003,
      "exist": 9004,
      "variances": 9005,
      "pickup": 9006,
      "printers": 9007,
      "tulsa": 9008,
      "rac": 9009,
      "alarms": 9010,
      "cultures": 9011,
      "ced": 9012,
      "advises": 9013,
      "##practice": 9014,
      "inspecting": 9015,
      "cast": 9016,
      "##unk": 9017,
      "affecting": 9018,
      "##bl": 9019,
      "turning": 9020,
      "subtraction": 9021,
      "manufacture": 9022,
      "legend": 9023,
      "journeyman": 9024,
      "transporting": 9025,
      "schne": 9026,
      "financially": 9027,
      "rej": 9028,
      "companion": 9029,
      "modal": 9030,
      "venti": 9031,
      "apartments": 9032,
      "dashboards": 9033,
      "##ctive": 9034,
      "190": 9035,
      "titles": 9036,
      "##ched": 9037,
      "salaried": 9038,
      "infusion": 9039,
      "fif": 9040,
      "cpm": 9041,
      "##phere": 9042,
      "pmp": 9043,
      "charleston": 9044,
      "##urable": 9045,
      "semi": 9046,
      "##oh": 9047,
      "penske": 9048,
      "pending": 9049,
      "kpis": 9050,
      "lobby": 9051,
[...]
